/**
  ******************************************************************************
  * @file    network_ecblobs.h
  * @brief   NN Code autogenerated DO NOT MODIFY IT
  ******************************************************************************
  * @attention
  *
  * Copyright (c) 2024 STMicroelectronics.
  * All rights reserved.
  *
  * This software is licensed under terms that can be found in the LICENSE file
  * in the root directory of this software component.
  * If no LICENSE file comes with this software, it is provided AS-IS.
  *
  ******************************************************************************
  */


#ifdef __cplusplus
extern "C" {
#endif

#include "ll_aton_caches_interface.h"

#include <string.h>

#if !defined(ECBLOB_CONST_SECTION)
#define ECBLOB_CONST_SECTION /* Empty */
#endif
#if !defined(ECBLOB_RUNTIME_SECTION)
#define ECBLOB_RUNTIME_SECTION /* Empty */
#endif

ECBLOB_CONST_SECTION
// _ec_blob_network_1 blob binary, aligned to the cache line size (equal to 64 bytes)
__attribute__((aligned(64)))
static const uint64_t _ec_blob_network_1[3008] =
{
  0x00000018ecbf0050UL, 0x0000000000000000UL, 0x0000000000000098UL, 0x0000007800000001UL,
  0x000000100000001aUL, 0x0000010c000000feUL, 0x0000025500000247UL, 0x0000043f00000431UL,
  0x000006290000061bUL, 0x0000081300000805UL, 0x000009fd000009efUL, 0x00000be700000bd9UL,
  0x00000dd100000dc3UL, 0x00000fbb00000fadUL, 0x000011a300001195UL, 0x0000138d0000137fUL,
  0x0000157700001569UL, 0x000016de000016d0UL, 0x0000003249505378UL, 0x00001754ca057a7aUL,
  0x008022410000003dUL, 0x080000005c000042UL, 0x5c027c0015000000UL, 0x5c07004300070000UL,
  0x0000002000004000UL, 0x000000005c0c0043UL, 0x0080204110411041UL, 0x000801041c007c00UL,
  0x342e00001c020043UL, 0x1c0500c300004000UL, 0x0000400000000000UL, 0x0000000000000000UL,
  0x0010000000000024UL, 0x000000061c0c0042UL, 0x1c0d004300000007UL, 0x342e403f00000001UL,
  0x000000001c110043UL, 0x0080212100000000UL, 0x0008010c38007c00UL, 0x342e000038020043UL,
  0x380500c300004000UL, 0x0000400000000000UL, 0x0000000000000000UL, 0x0010000000000024UL,
  0x00000006380c0042UL, 0x380d004300000007UL, 0x342e403f00000001UL, 0x0000000038110043UL,
  0x100b7c0000000000UL, 0x101e7c0000000025UL, 0x10007c0000000005UL, 0x3800200100000001UL,
  0x1c0020015c002001UL, 0x0000006438007fe4UL, 0x10007c0000000000UL, 0x1000042400000002UL,
  0x0000000000000064UL, 0x4000000010007c00UL, 0x0000006410007bc4UL, 0x100b7c0000000000UL,
  0x101e7c0000000000UL, 0x38007c0000000000UL, 0x3800042400000002UL, 0x0000000000000064UL,
  0x4000000038007c00UL, 0x0000006438007bc4UL, 0x0080012100000000UL, 0x080000025c007c00UL,
  0x000000645c000424UL, 0x5c007c0000000000UL, 0x5c007bc448000000UL, 0x0000000000000064UL,
  0x1c007c0000800241UL, 0x1c00042400000002UL, 0x0000000000000064UL, 0x400000001c007c00UL,
  0x000000641c007bc4UL, 0x0080004100000000UL, 0x008021410000005dUL, 0x001000343c007c00UL,
  0x080103033c0200e3UL, 0x1063430300001155UL, 0x007f000000800080UL, 0x00000001007f0000UL,
  0x000000003c0a7c00UL, 0x000000003c0d7c00UL, 0x6000004200802261UL, 0x156000fc08000000UL,
  0x000a000060020123UL, 0x0000000700000000UL, 0x0007ffff0001ffffUL, 0x0000000000000000UL,
  0x00000001078403f9UL, 0x00000000600c0043UL, 0x600b7c0020422042UL, 0x6100080300000001UL,
  0x00003f9cfb42365dUL, 0x0000cd75f7f63b3cUL, 0x00006e1bf8a54a61UL, 0x0000091ef81841b9UL,
  0x0000037af3fc3809UL, 0x00006603f74d6badUL, 0x0000841bf94636acUL, 0x00005fa9f6d44669UL,
  0x000015dcf74b53b2UL, 0x00003c9ff80332feUL, 0x000077fcf75c3da2UL, 0x00006d8bf6aa3ed4UL,
  0x0000c3a7f8a0516aUL, 0x00000ef1f7203923UL, 0x00006ee7f8033ec7UL, 0x0000a879f7fc61c6UL,
  0x0000b236f4a93ddcUL, 0x0000fd15faf83589UL, 0x00002333f88f62abUL, 0x0000e8ecf9f1681eUL,
  0x00001099f72f27c7UL, 0x0000dcc5f8513693UL, 0x0000a5cefb8144fbUL, 0x000018d1f99d502fUL,
  0x00008210f7524d99UL, 0x00005d67f9744751UL, 0x000055c6fb8155a5UL, 0x0000bb58f959393bUL,
  0x00003ed3fab74288UL, 0x00009c44fbf73bbdUL, 0x00002ae7f7dc3d5cUL, 0x0000266ff9ab56fcUL,
  0x6400004200802281UL, 0x1500000008000000UL, 0x0007000064027c00UL, 0x0000400064070043UL,
  0x640c004300000020UL, 0x1041104100000000UL, 0x20007c0000802061UL, 0x2002004300080100UL,
  0x00004000342e0000UL, 0x00000000200500c3UL, 0x0000000100004000UL, 0x0000002400000000UL,
  0x200c004200100000UL, 0x0000000700000006UL, 0x00000004200d0043UL, 0x20110043342e403fUL,
  0x0000000000000000UL, 0x1c007c0000802041UL, 0x1c02004300080184UL, 0x0000012000018c00UL,
  0x000000001c0500c3UL, 0x0000000000000000UL, 0x0000002400000000UL, 0x1c0c004200100000UL,
  0x0000000700000006UL, 0x000000011c0d0043UL, 0x1c11004300018d5fUL, 0x0000000800000000UL,
  0x30007c00008020e1UL, 0x3002004300080108UL, 0x0002000034100000UL, 0x00000000300500c3UL,
  0x0000000000020000UL, 0x0000002400000000UL, 0x300c004200100000UL, 0x0000000700000006UL,
  0x00000004300d0043UL, 0x301100433418003fUL, 0x0000000000000000UL, 0x0000002910097c00UL,
  0x00000007100c0043UL, 0x10207c0000000005UL, 0x10227c0000000015UL, 0x10007c0000000027UL,
  0x3000200100000001UL, 0x001000353c007c00UL, 0x6400200160002001UL, 0x200020011c002001UL,
  0x0000006430007fe4UL, 0x10007c0000000000UL, 0x1000042400000002UL, 0x0000000000000064UL,
  0x4000000010007c00UL, 0x0000006410007bc4UL, 0x10097c0000000000UL, 0x100c004300000000UL,
  0x0000000000000000UL, 0x0000000010207c00UL, 0x0000000010227c00UL, 0x0000000230007c00UL,
  0x0000006430000424UL, 0x30007c0000000000UL, 0x30007bc440000000UL, 0x0000000000000064UL,
  0x3c007c00008000e1UL, 0x3c00042400000002UL, 0x0000000000000064UL, 0x400000003c007c00UL,
  0x000000643c007bc4UL, 0x0080014100000000UL, 0x0800000260007c00UL, 0x0000006460000424UL,
  0x60007c0000000000UL, 0x60007bc448000000UL, 0x0000000000000064UL, 0x64007c0000800261UL,
  0x6400042408000002UL, 0x0000000000000064UL, 0x4800000064007c00UL, 0x0000006464007bc4UL,
  0x0080028100000000UL, 0x000000021c007c00UL, 0x000000641c000424UL, 0x1c007c0000000000UL,
  0x1c007bc440000000UL, 0x0000000000000064UL, 0x20007c0000800041UL, 0x2000042400000002UL,
  0x0000000000000064UL, 0x4000000020007c00UL, 0x0000006420007bc4UL, 0x0080006100000000UL,
  0x008021610000007dUL, 0x0010003440007c00UL, 0x08080303400200e3UL, 0x1077400600001155UL,
  0x03ff000000800400UL, 0x00070020007f0000UL, 0x00000000400a7c00UL, 0x00000000400d7c00UL,
  0x44007c0000802181UL, 0x440200e300100020UL, 0x0000115508080303UL, 0x0080040010774000UL,
  0x007f000003ff0000UL, 0x440a7c00000f0820UL, 0x440d7c0000000000UL, 0x008021a100000000UL,
  0x0010002048007c00UL, 0x08080303480200e3UL, 0x1077400000001155UL, 0x03ff000000800400UL,
  0x00171020007f0000UL, 0x00000000480a7c00UL, 0x00000000480d7c00UL, 0x3c007c0000802141UL,
  0x3c0200e300100020UL, 0x0000115508080303UL, 0x0080040010634600UL, 0x007f000003ff0000UL,
  0x3c0a7c00001f1820UL, 0x3c0d7c0000000000UL, 0x008022a100000000UL, 0x0800000068000042UL,
  0x68020123156000fcUL, 0x0000000000088000UL, 0x0001ffff00000007UL, 0x000000000007ffffUL,
  0x078403f900000000UL, 0x680c004300000001UL, 0x2042204200000000UL, 0x00000001680b7c00UL,
  0xff0d5b0b69000803UL, 0xff0d5b11000040d6UL, 0xff0154a500000e60UL, 0xff0b4d770000592fUL,
  0xff0b4d5b00008cf4UL, 0xfefc0a4a0000d28fUL, 0xfefc4b26000067a6UL, 0xfefa5edb0000966aUL,
  0xfef63c6700001b32UL, 0xfefb463400002803UL, 0xff0752fa0000032bUL, 0xff000cd500009f3bUL,
  0xfefb574a0000291bUL, 0xfefb0b83000040c0UL, 0xff105aaf0000cfb4UL, 0xff053aa9000048a9UL,
  0xfef63c020000d5f4UL, 0xff0f604f00004a64UL, 0xff0d40c50000cfefUL, 0xff0944b900002c16UL,
  0xff0a4e4a0000553cUL, 0xfef8498f0000a2f6UL, 0xff074c9500007768UL, 0xff053828000088e0UL,
  0xff013e2d0000dc7aUL, 0xfefe357e00002088UL, 0xff0c50bb0000757bUL, 0xff0640360000609bUL,
  0xfefb528a00004143UL, 0xff0511c900009783UL, 0xff025683000092c9UL, 0xfef70b930000a285UL,
  0x008022410000c41fUL, 0x080000005c000042UL, 0x5c027c0015000000UL, 0x5c07004300070000UL,
  0x0000002000004000UL, 0x000000005c0c0043UL, 0x008020c110411041UL, 0x000801002c007c00UL,
  0x341000002c020043UL, 0x2c0500c300020000UL, 0x0008000000000000UL, 0x0000000000000001UL,
  0x0010000000000024UL, 0x000000062c0c0042UL, 0x2c0d004300000007UL, 0x3418003f00000004UL,
  0x000000002c110043UL, 0x0080204100000000UL, 0x000801841c007c00UL, 0x000000001c020043UL,
  0x1c0500c300002400UL, 0x0000000000000000UL, 0x0000000000000000UL, 0x0010000000000024UL,
  0x000000061c0c0042UL, 0x1c0d004300000007UL, 0x0000243f00000001UL, 0x000000001c110043UL,
  0x0080210100000008UL, 0x0008010034007c00UL, 0x3412000034020043UL, 0x340500c300020000UL,
  0x0008000000000000UL, 0x0000000000000001UL, 0x0010000000000024UL, 0x00000006340c0042UL,
  0x340d004300000007UL, 0x3418003f00000004UL, 0x0000000034110043UL, 0x008020a100000000UL,
  0x0008010028007c00UL, 0x3414000028020043UL, 0x280500c300020000UL, 0x0008000000000000UL,
  0x0000000000000001UL, 0x0010000000000024UL, 0x00000006280c0042UL, 0x280d004300000007UL,
  0x3418003f00000004UL, 0x0000000028110043UL, 0x0080200100000000UL, 0x0008010014007c00UL,
  0x3416000014020043UL, 0x140500c300020000UL, 0x0008000000000000UL, 0x0000000000000001UL,
  0x0010000000000024UL, 0x00000006140c0042UL, 0x140d004300000007UL, 0x3418003f00000004UL,
  0x0000000014110043UL, 0x0080202100000000UL, 0x0008010818007c00UL, 0x3418000018020043UL,
  0x180500c300020000UL, 0x0002000000000000UL, 0x0000000000000000UL, 0x0010000000000024UL,
  0x00000006180c0042UL, 0x180d004300000007UL, 0x3420003f00000004UL, 0x0000000018110043UL,
  0x10037c0000000000UL, 0x100c00a300000025UL, 0x0000000500000001UL, 0x0000000d0000001bUL,
  0x101200c300000005UL, 0x0000000500000011UL, 0x0000000b00000017UL, 0x0000001900000005UL,
  0x0000002b101e7c00UL, 0x0000001510247c00UL, 0x0000000110007c00UL, 0x3c007c0018002001UL,
  0x40007c0000100021UL, 0x44007c0000100035UL, 0x48007c0000100021UL, 0x5c00200100100021UL,
  0x1400200168002001UL, 0x280020011c002001UL, 0x340020012c002001UL, 0x0000006418007fe4UL,
  0x10007c0000000000UL, 0x1000042400000002UL, 0x0000000000000064UL, 0x4000000010007c00UL,
  0x0000006410007bc4UL, 0x10037c0000000000UL, 0x100c00a300000000UL, 0x0000000000000000UL,
  0x0000000000000000UL, 0x101200c300000000UL, 0x0000000000000000UL, 0x0000000000000000UL,
  0x0000000000000000UL, 0x00000000101e7c00UL, 0x0000000010247c00UL, 0x0000000218007c00UL,
  0x0000006418000424UL, 0x18007c0000000000UL, 0x18007bc440000000UL, 0x0000000000000064UL,
  0x3c007c0000800021UL, 0x3c00042400000002UL, 0x0000000000000064UL, 0x400000003c007c00UL,
  0x000000643c007bc4UL, 0x0080014100000000UL, 0x0000000240007c00UL, 0x0000006440000424UL,
  0x40007c0000000000UL, 0x40007bc440000000UL, 0x0000000000000064UL, 0x44007c0000800161UL,
  0x4400042400000002UL, 0x0000000000000064UL, 0x4000000044007c00UL, 0x0000006444007bc4UL,
  0x0080018100000000UL, 0x0000000248007c00UL, 0x0000006448000424UL, 0x48007c0000000000UL,
  0x48007bc440000000UL, 0x0000000000000064UL, 0x5c007c00008001a1UL, 0x5c00042408000002UL,
  0x0000000000000064UL, 0x480000005c007c00UL, 0x000000645c007bc4UL, 0x0080024100000000UL,
  0x0800000268007c00UL, 0x0000006468000424UL, 0x68007c0000000000UL, 0x68007bc448000000UL,
  0x0000000000000064UL, 0x14007c00008002a1UL, 0x1400042400000002UL, 0x0000000000000064UL,
  0x4000000014007c00UL, 0x0000006414007bc4UL, 0x0080000100000000UL, 0x000000021c007c00UL,
  0x000000641c000424UL, 0x1c007c0000000000UL, 0x1c007bc440000000UL, 0x0000000000000064UL,
  0x28007c0000800041UL, 0x2800042400000002UL, 0x0000000000000064UL, 0x4000000028007c00UL,
  0x0000006428007bc4UL, 0x008000a100000000UL, 0x000000022c007c00UL, 0x000000642c000424UL,
  0x2c007c0000000000UL, 0x2c007bc440000000UL, 0x0000000000000064UL, 0x34007c00008000c1UL,
  0x3400042400000002UL, 0x0000000000000064UL, 0x4000000034007c00UL, 0x0000006434007bc4UL,
  0x0080010100000000UL, 0x008021410000009dUL, 0x001000343c007c00UL, 0x080803033c0200e3UL,
  0x1077400700001155UL, 0x03ff000000800400UL, 0x00070020007f0000UL, 0x000000003c0a7c00UL,
  0x000000003c0d7c00UL, 0x40007c0000802161UL, 0x400200e300100020UL, 0x0000115508080303UL,
  0x0080040010774000UL, 0x007f000003ff0000UL, 0x400a7c00000f0820UL, 0x400d7c0000000000UL,
  0x0080218100000000UL, 0x0010002044007c00UL, 0x08080303440200e3UL, 0x1077400000001155UL,
  0x03ff000000800400UL, 0x00171020007f0000UL, 0x00000000440a7c00UL, 0x00000000440d7c00UL,
  0x48007c00008021a1UL, 0x480200e300100020UL, 0x0000115508080303UL, 0x0080040010634700UL,
  0x007f000003ff0000UL, 0x480a7c00001f1820UL, 0x480d7c0000000000UL, 0x0080226100000000UL,
  0x0800000060000042UL, 0x60020123156000fcUL, 0x0000000000090000UL, 0x0001ffff00000007UL,
  0x000000000007ffffUL, 0x078403f900000000UL, 0x600c004300000001UL, 0x2042204200000000UL,
  0x00000001600b7c00UL, 0xfdff216661000803UL, 0xfdfc2f9b0000216cUL, 0xfdfa5c4400006360UL,
  0xfdfc2693000067bbUL, 0xfe011ad00000fea0UL, 0xfdfe32dd0000c155UL, 0xfdfd194b0000eb6dUL,
  0xfe023bf2000051f0UL, 0xfe00221b00007b80UL, 0xfdfb162000001151UL, 0xfe0526200000efbaUL,
  0xfdf95eb700005306UL, 0xfdfa373100000674UL, 0xfe042b1200005739UL, 0xfe042baf0000cbd4UL,
  0xfdfe27b90000325aUL, 0xfe042de5000014c2UL, 0xfdfb14680000e027UL, 0xfe004ab300000214UL,
  0xfe043b8d000035b0UL, 0xfdfc2aab00001becUL, 0xfe043c0a0000db02UL, 0xfdf711e20000e20aUL,
  0xfe0312d000006a6eUL, 0xfe051ef100005097UL, 0xfdf5193f00000b64UL, 0xfdfd2bc900008238UL,
  0xfe013bfc00008bf8UL, 0xfdfe1e490000a983UL, 0xfdfa174a000087c9UL, 0xfe0538cf00006db3UL,
  0xfe03164f00007764UL, 0x0080228100006b8bUL, 0x0800000064000042UL, 0x64027c0015000000UL,
  0x6407004300070000UL, 0x0000002000004000UL, 0x00000000640c0043UL, 0x0080212110411041UL,
  0x0008010038007c00UL, 0x3418000038020043UL, 0x380500c300020000UL, 0x0008000000000000UL,
  0x0000000000000001UL, 0x0010000000000024UL, 0x00000006380c0042UL, 0x380d004300000007UL,
  0x3420003f00000004UL, 0x0000000038110043UL, 0x0080208100000000UL, 0x0008018424007c00UL,
  0x0000240024020043UL, 0x240500c300002400UL, 0x0000000000000000UL, 0x0000000000000000UL,
  0x0010000000000024UL, 0x00000006240c0042UL, 0x240d004300000007UL, 0x0000483f00000001UL,
  0x0000000024110043UL, 0x008020e100000008UL, 0x0008010030007c00UL, 0x341a000030020043UL,
  0x300500c300020000UL, 0x0008000000000000UL, 0x0000000000000001UL, 0x0010000000000024UL,
  0x00000006300c0042UL, 0x300d004300000007UL, 0x3420003f00000004UL, 0x0000000030110043UL,
  0x0080206100000000UL, 0x0008010020007c00UL, 0x341c000020020043UL, 0x200500c300020000UL,
  0x0008000000000000UL, 0x0000000000000001UL, 0x0010000000000024UL, 0x00000006200c0042UL,
  0x200d004300000007UL, 0x3420003f00000004UL, 0x0000000020110043UL, 0x0080210100000000UL,
  0x0008010034007c00UL, 0x341e000034020043UL, 0x340500c300020000UL, 0x0008000000000000UL,
  0x0000000000000001UL, 0x0010000000000024UL, 0x00000006340c0042UL, 0x340d004300000007UL,
  0x3420003f00000004UL, 0x0000000034110043UL, 0x0080204100000000UL, 0x000801081c007c00UL,
  0x341000001c020043UL, 0x1c0500c300020000UL, 0x0002000000000000UL, 0x0000000000000000UL,
  0x0010000000000024UL, 0x000000061c0c0042UL, 0x1c0d004300000007UL, 0x3418003f00000004UL,
  0x000000001c110043UL, 0x10047c0000000000UL, 0x100c004300000029UL, 0x0000000900000013UL,
  0x0000000f100f0123UL, 0x0000001500000009UL, 0x0000000900000007UL, 0x0000001100000017UL,
  0x0000001900000009UL, 0x0000001b10207c00UL, 0x0000002710227c00UL, 0x0000000110007c00UL,
  0x3c007c001c002001UL, 0x40007c0000100035UL, 0x44007c0000100021UL, 0x48007c0000100021UL,
  0x6000200100100021UL, 0x2000200164002001UL, 0x3000200124002001UL, 0x3800200134002001UL,
  0x000000641c007fe4UL, 0x10007c0000000000UL, 0x1000042400000002UL, 0x0000000000000064UL,
  0x4000000010007c00UL, 0x0000006410007bc4UL, 0x10047c0000000000UL, 0x100c004300000000UL,
  0x0000000000000000UL, 0x00000000100f0123UL, 0x0000000000000000UL, 0x0000000000000000UL,
  0x0000000000000000UL, 0x0000000000000000UL, 0x0000000010207c00UL, 0x0000000010227c00UL,
  0x000000021c007c00UL, 0x000000641c000424UL, 0x1c007c0000000000UL, 0x1c007bc440000000UL,
  0x0000000000000064UL, 0x3c007c0000800041UL, 0x3c00042400000002UL, 0x0000000000000064UL,
  0x400000003c007c00UL, 0x000000643c007bc4UL, 0x0080014100000000UL, 0x0000000240007c00UL,
  0x0000006440000424UL, 0x40007c0000000000UL, 0x40007bc440000000UL, 0x0000000000000064UL,
  0x44007c0000800161UL, 0x4400042400000002UL, 0x0000000000000064UL, 0x4000000044007c00UL,
  0x0000006444007bc4UL, 0x0080018100000000UL, 0x0000000248007c00UL, 0x0000006448000424UL,
  0x48007c0000000000UL, 0x48007bc440000000UL, 0x0000000000000064UL, 0x60007c00008001a1UL,
  0x6000042408000002UL, 0x0000000000000064UL, 0x4800000060007c00UL, 0x0000006460007bc4UL,
  0x0080026100000000UL, 0x0800000264007c00UL, 0x0000006464000424UL, 0x64007c0000000000UL,
  0x64007bc448000000UL, 0x0000000000000064UL, 0x20007c0000800281UL, 0x2000042400000002UL,
  0x0000000000000064UL, 0x4000000020007c00UL, 0x0000006420007bc4UL, 0x0080006100000000UL,
  0x0000000224007c00UL, 0x0000006424000424UL, 0x24007c0000000000UL, 0x24007bc440000000UL,
  0x0000000000000064UL, 0x30007c0000800081UL, 0x3000042400000002UL, 0x0000000000000064UL,
  0x4000000030007c00UL, 0x0000006430007bc4UL, 0x008000e100000000UL, 0x0000000234007c00UL,
  0x0000006434000424UL, 0x34007c0000000000UL, 0x34007bc440000000UL, 0x0000000000000064UL,
  0x38007c0000800101UL, 0x3800042400000002UL, 0x0000000000000064UL, 0x4000000038007c00UL,
  0x0000006438007bc4UL, 0x0080012100000000UL, 0x00802141000000bdUL, 0x001000343c007c00UL,
  0x080803033c0200e3UL, 0x1077400600001155UL, 0x03ff000000800400UL, 0x00070020007f0000UL,
  0x000000003c0a7c00UL, 0x000000003c0d7c00UL, 0x40007c0000802161UL, 0x400200e300100020UL,
  0x0000115508080303UL, 0x0080040010774000UL, 0x007f000003ff0000UL, 0x400a7c00000f0820UL,
  0x400d7c0000000000UL, 0x0080218100000000UL, 0x0010002044007c00UL, 0x08080303440200e3UL,
  0x1077400000001155UL, 0x03ff000000800400UL, 0x00171020007f0000UL, 0x00000000440a7c00UL,
  0x00000000440d7c00UL, 0x48007c00008021a1UL, 0x480200e300100020UL, 0x0000115508080303UL,
  0x0080040010634600UL, 0x007f000003ff0000UL, 0x480a7c00001f1820UL, 0x480d7c0000000000UL,
  0x0080224100000000UL, 0x080000005c000042UL, 0x5c020123156000fcUL, 0x0000000000098000UL,
  0x0001ffff00000007UL, 0x000000000007ffffUL, 0x078403f900000000UL, 0x5c0c004300000001UL,
  0x2042204200000000UL, 0x000000015c0b7c00UL, 0xfc0124c15d000803UL, 0xfbff1043000000b5UL,
  0xfc0222b9000057c8UL, 0xfc0210bf00000eccUL, 0xfbfc0e6100000df2UL, 0xfbfe341c00003592UL,
  0xfbfa41c10000d943UL, 0xfc013ebf0000ef6cUL, 0xfc02120700004773UL, 0xfbfc199900002593UL,
  0xfbff11270000f9b1UL, 0xfbfe30210000b64cUL, 0xfc00358b0000f687UL, 0xfc003d2f0000ebebUL,
  0xfbff2e7a000002deUL, 0xfbfd12fc000049b8UL, 0xfc003d370000b2a3UL, 0xfbff394c0000dedcUL,
  0xfbfc18730000cdddUL, 0xfbff2f73000054a0UL, 0xfbff2d1100004bd6UL, 0xfc01393c00003804UL,
  0xfbfc0f150000aff0UL, 0xfbff36bd00006ae3UL, 0xfbff3e680000fe4aUL, 0xfbfc2f8200006303UL,
  0xfbff28dd0000f78fUL, 0xfbfe3e040000c16dUL, 0xfbfe21490000fd48UL, 0xfbfe2d2f0000a305UL,
  0xfbff4f3800003e45UL, 0xfc013aa30000cc02UL, 0x008022a10000252dUL, 0x0800000068000042UL,
  0x68027c0015000000UL, 0x6807004300070000UL, 0x0000002000004000UL, 0x00000000680c0043UL,
  0x008020a110411041UL, 0x0008010028007c00UL, 0x3410000028020043UL, 0x280500c300020000UL,
  0x0008000000000000UL, 0x0000000000000001UL, 0x0010000000000024UL, 0x00000006280c0042UL,
  0x280d004300000007UL, 0x3418003f00000004UL, 0x0000000028110043UL, 0x0080210100000000UL,
  0x0008018434007c00UL, 0x0000480034020043UL, 0x340500c300002400UL, 0x0000000000000000UL,
  0x0000000000000000UL, 0x0010000000000024UL, 0x00000006340c0042UL, 0x340d004300000007UL,
  0x00006c3f00000001UL, 0x0000000034110043UL, 0x0080202100000008UL, 0x0008010018007c00UL,
  0x3412000018020043UL, 0x180500c300020000UL, 0x0008000000000000UL, 0x0000000000000001UL,
  0x0010000000000024UL, 0x00000006180c0042UL, 0x180d004300000007UL, 0x3418003f00000004UL,
  0x0000000018110043UL, 0x0080212100000000UL, 0x0008010038007c00UL, 0x3414000038020043UL,
  0x380500c300020000UL, 0x0008000000000000UL, 0x0000000000000001UL, 0x0010000000000024UL,
  0x00000006380c0042UL, 0x380d004300000007UL, 0x3418003f00000004UL, 0x0000000038110043UL,
  0x0080204100000000UL, 0x000801001c007c00UL, 0x341600001c020043UL, 0x1c0500c300020000UL,
  0x0008000000000000UL, 0x0000000000000001UL, 0x0010000000000024UL, 0x000000061c0c0042UL,
  0x1c0d004300000007UL, 0x3418003f00000004UL, 0x000000001c110043UL, 0x0080208100000000UL,
  0x0008010824007c00UL, 0x3418000024020043UL, 0x240500c300020000UL, 0x0002000000000000UL,
  0x0000000000000000UL, 0x0010000000000024UL, 0x00000006240c0042UL, 0x240d004300000007UL,
  0x3420003f00000004UL, 0x0000000024110043UL, 0x10067c0000000000UL, 0x100c00430000002bUL,
  0x000000110000000bUL, 0x00000003100f0123UL, 0x0000001500000011UL, 0x0000001100000013UL,
  0x0000000500000017UL, 0x0000001900000011UL, 0x0000001b101e7c00UL, 0x0000002510247c00UL,
  0x0000000110007c00UL, 0x3c007c0024002001UL, 0x40007c0000100035UL, 0x44007c0000100021UL,
  0x48007c0000100021UL, 0x5c00200100100021UL, 0x1800200168002001UL, 0x280020011c002001UL,
  0x3800200134002001UL, 0x0000006424007fe4UL, 0x10007c0000000000UL, 0x1000042400000002UL,
  0x0000000000000064UL, 0x4000000010007c00UL, 0x0000006410007bc4UL, 0x10067c0000000000UL,
  0x100c004300000000UL, 0x0000000000000000UL, 0x00000000100f0123UL, 0x0000000000000000UL,
  0x0000000000000000UL, 0x0000000000000000UL, 0x0000000000000000UL, 0x00000000101e7c00UL,
  0x0000000010247c00UL, 0x0000000224007c00UL, 0x0000006424000424UL, 0x24007c0000000000UL,
  0x24007bc440000000UL, 0x0000000000000064UL, 0x3c007c0000800081UL, 0x3c00042400000002UL,
  0x0000000000000064UL, 0x400000003c007c00UL, 0x000000643c007bc4UL, 0x0080014100000000UL,
  0x0000000240007c00UL, 0x0000006440000424UL, 0x40007c0000000000UL, 0x40007bc440000000UL,
  0x0000000000000064UL, 0x44007c0000800161UL, 0x4400042400000002UL, 0x0000000000000064UL,
  0x4000000044007c00UL, 0x0000006444007bc4UL, 0x0080018100000000UL, 0x0000000248007c00UL,
  0x0000006448000424UL, 0x48007c0000000000UL, 0x48007bc440000000UL, 0x0000000000000064UL,
  0x5c007c00008001a1UL, 0x5c00042408000002UL, 0x0000000000000064UL, 0x480000005c007c00UL,
  0x000000645c007bc4UL, 0x0080024100000000UL, 0x0800000268007c00UL, 0x0000006468000424UL,
  0x68007c0000000000UL, 0x68007bc448000000UL, 0x0000000000000064UL, 0x18007c00008002a1UL,
  0x1800042400000002UL, 0x0000000000000064UL, 0x4000000018007c00UL, 0x0000006418007bc4UL,
  0x0080002100000000UL, 0x000000021c007c00UL, 0x000000641c000424UL, 0x1c007c0000000000UL,
  0x1c007bc440000000UL, 0x0000000000000064UL, 0x28007c0000800041UL, 0x2800042400000002UL,
  0x0000000000000064UL, 0x4000000028007c00UL, 0x0000006428007bc4UL, 0x008000a100000000UL,
  0x0000000234007c00UL, 0x0000006434000424UL, 0x34007c0000000000UL, 0x34007bc440000000UL,
  0x0000000000000064UL, 0x38007c0000800101UL, 0x3800042400000002UL, 0x0000000000000064UL,
  0x4000000038007c00UL, 0x0000006438007bc4UL, 0x0080012100000000UL, 0x00802141000000ddUL,
  0x001000343c007c00UL, 0x080803033c0200e3UL, 0x1077400600001155UL, 0x03ff000000800400UL,
  0x00070020007f0000UL, 0x000000003c0a7c00UL, 0x000000003c0d7c00UL, 0x40007c0000802161UL,
  0x400200e300100020UL, 0x0000115508080303UL, 0x0080040010774000UL, 0x007f000003ff0000UL,
  0x400a7c00000f0820UL, 0x400d7c0000000000UL, 0x0080218100000000UL, 0x0010002044007c00UL,
  0x08080303440200e3UL, 0x1077400000001155UL, 0x03ff000000800400UL, 0x00171020007f0000UL,
  0x00000000440a7c00UL, 0x00000000440d7c00UL, 0x48007c00008021a1UL, 0x480200e300100020UL,
  0x0000115508080303UL, 0x0080040010634600UL, 0x007f000003ff0000UL, 0x480a7c00001f1820UL,
  0x480d7c0000000000UL, 0x0080226100000000UL, 0x0800000060000042UL, 0x60020123156000fcUL,
  0x0000000000090000UL, 0x0001ffff00000007UL, 0x000000000007ffffUL, 0x078403f900000000UL,
  0x600c004300000001UL, 0x2042204200000000UL, 0x00000001600b7c00UL, 0xfe00129e61000803UL,
  0xfdff2e3d00004128UL, 0xfe001aa60000cf98UL, 0xfe001fb000000efdUL, 0xfe001b1d00002c10UL,
  0xfdff276b000026f9UL, 0xfdff1fc30000bcdeUL, 0xfe0016b90000fc07UL, 0xfe001a9c000066f6UL,
  0xfe0023ef000021adUL, 0xfdff07ef00004ceaUL, 0xfe000f690000da11UL, 0xfdff231a000011d1UL,
  0xfdff49d20000e7deUL, 0xfe0016050000d679UL, 0xfdff0ec000001816UL, 0xfdff30ad0000f1f0UL,
  0xfe0008030000ce8fUL, 0xfdff0cd5000006a2UL, 0xfe0026430000ba04UL, 0xfe001cf90000161eUL,
  0xfe0020d3000031ccUL, 0xfe001a9a00001d3bUL, 0xfe0013fa00000ce2UL, 0xfe00215b00001a87UL,
  0xfdff1d2a00001a94UL, 0xfe0023290000c5acUL, 0xfdff1deb00003318UL, 0xfdff2d430000d22fUL,
  0xfdff211d0000f4afUL, 0xfe00292f0000be49UL, 0xfe0026e60000134dUL, 0x00802281000018ebUL,
  0x0800000064000042UL, 0x64027c0015000000UL, 0x6407004300070000UL, 0x0000002000004000UL,
  0x00000000640c0043UL, 0x008020c110411041UL, 0x000801002c007c00UL, 0x341800002c020043UL,
  0x2c0500c300020000UL, 0x0008000000000000UL, 0x0000000000000001UL, 0x0010000000000024UL,
  0x000000062c0c0042UL, 0x2c0d004300000007UL, 0x3420003f00000004UL, 0x000000002c110043UL,
  0x0080200100000000UL, 0x0008018414007c00UL, 0x00006c0014020043UL, 0x140500c300002400UL,
  0x0000000000000000UL, 0x0000000000000000UL, 0x0010000000000024UL, 0x00000006140c0042UL,
  0x140d004300000007UL, 0x0000903f00000001UL, 0x0000000014110043UL, 0x0080212100000008UL,
  0x0008010038007c00UL, 0x341a000038020043UL, 0x380500c300020000UL, 0x0008000000000000UL,
  0x0000000000000001UL, 0x0010000000000024UL, 0x00000006380c0042UL, 0x380d004300000007UL,
  0x3420003f00000004UL, 0x0000000038110043UL, 0x0080210100000000UL, 0x0008010034007c00UL,
  0x341c000034020043UL, 0x340500c300020000UL, 0x0008000000000000UL, 0x0000000000000001UL,
  0x0010000000000024UL, 0x00000006340c0042UL, 0x340d004300000007UL, 0x3420003f00000004UL,
  0x0000000034110043UL, 0x0080204100000000UL, 0x000801001c007c00UL, 0x341e00001c020043UL,
  0x1c0500c300020000UL, 0x0008000000000000UL, 0x0000000000000001UL, 0x0010000000000024UL,
  0x000000061c0c0042UL, 0x1c0d004300000007UL, 0x3420003f00000004UL, 0x000000001c110043UL,
  0x0080206100000000UL, 0x0008010820007c00UL, 0x3410000020020043UL, 0x200500c300020000UL,
  0x0002000000000000UL, 0x0000000000000000UL, 0x0010000000000024UL, 0x00000006200c0042UL,
  0x200d004300000007UL, 0x3418003f00000004UL, 0x0000000020110043UL, 0x10057c0000000000UL,
  0x100c004300000029UL, 0x000000010000000dUL, 0x00000013100f0123UL, 0x0000001500000001UL,
  0x0000000100000011UL, 0x0000000500000017UL, 0x0000001900000001UL, 0x0000001b10207c00UL,
  0x0000002710227c00UL, 0x0000000110007c00UL, 0x3c007c0020002001UL, 0x40007c0000100035UL,
  0x44007c0000100021UL, 0x48007c0000100021UL, 0x6000200100100021UL, 0x1400200164002001UL,
  0x2c0020011c002001UL, 0x3800200134002001UL, 0x0000006420007fe4UL, 0x10007c0000000000UL,
  0x1000042400000002UL, 0x0000000000000064UL, 0x4000000010007c00UL, 0x0000006410007bc4UL,
  0x10057c0000000000UL, 0x100c004300000000UL, 0x0000000000000000UL, 0x00000000100f0123UL,
  0x0000000000000000UL, 0x0000000000000000UL, 0x0000000000000000UL, 0x0000000000000000UL,
  0x0000000010207c00UL, 0x0000000010227c00UL, 0x0000000220007c00UL, 0x0000006420000424UL,
  0x20007c0000000000UL, 0x20007bc440000000UL, 0x0000000000000064UL, 0x3c007c0000800061UL,
  0x3c00042400000002UL, 0x0000000000000064UL, 0x400000003c007c00UL, 0x000000643c007bc4UL,
  0x0080014100000000UL, 0x0000000240007c00UL, 0x0000006440000424UL, 0x40007c0000000000UL,
  0x40007bc440000000UL, 0x0000000000000064UL, 0x44007c0000800161UL, 0x4400042400000002UL,
  0x0000000000000064UL, 0x4000000044007c00UL, 0x0000006444007bc4UL, 0x0080018100000000UL,
  0x0000000248007c00UL, 0x0000006448000424UL, 0x48007c0000000000UL, 0x48007bc440000000UL,
  0x0000000000000064UL, 0x60007c00008001a1UL, 0x6000042408000002UL, 0x0000000000000064UL,
  0x4800000060007c00UL, 0x0000006460007bc4UL, 0x0080026100000000UL, 0x0800000264007c00UL,
  0x0000006464000424UL, 0x64007c0000000000UL, 0x64007bc448000000UL, 0x0000000000000064UL,
  0x14007c0000800281UL, 0x1400042400000002UL, 0x0000000000000064UL, 0x4000000014007c00UL,
  0x0000006414007bc4UL, 0x0080000100000000UL, 0x000000021c007c00UL, 0x000000641c000424UL,
  0x1c007c0000000000UL, 0x1c007bc440000000UL, 0x0000000000000064UL, 0x2c007c0000800041UL,
  0x2c00042400000002UL, 0x0000000000000064UL, 0x400000002c007c00UL, 0x000000642c007bc4UL,
  0x008000c100000000UL, 0x0000000234007c00UL, 0x0000006434000424UL, 0x34007c0000000000UL,
  0x34007bc440000000UL, 0x0000000000000064UL, 0x38007c0000800101UL, 0x3800042400000002UL,
  0x0000000000000064UL, 0x4000000038007c00UL, 0x0000006438007bc4UL, 0x0080012100000000UL,
  0x00802141000000fdUL, 0x001000343c007c00UL, 0x080803033c0200e3UL, 0x1077400600001155UL,
  0x03ff000000800400UL, 0x00070020007f0000UL, 0x000000003c0a7c00UL, 0x000000003c0d7c00UL,
  0x40007c0000802161UL, 0x400200e300100020UL, 0x0000115508080303UL, 0x0080040010774000UL,
  0x007f000003ff0000UL, 0x400a7c00000f0820UL, 0x400d7c0000000000UL, 0x0080218100000000UL,
  0x0010002044007c00UL, 0x08080303440200e3UL, 0x1077400000001155UL, 0x03ff000000800400UL,
  0x00171020007f0000UL, 0x00000000440a7c00UL, 0x00000000440d7c00UL, 0x48007c00008021a1UL,
  0x480200e300100020UL, 0x0000115508080303UL, 0x0080040010634600UL, 0x007f000003ff0000UL,
  0x480a7c00001f1820UL, 0x480d7c0000000000UL, 0x0080224100000000UL, 0x080000005c000042UL,
  0x5c020123156000fcUL, 0x0000000000090000UL, 0x0001ffff00000007UL, 0x000000000007ffffUL,
  0x078403f900000000UL, 0x5c0c004300000001UL, 0x2042204200000000UL, 0x000000015c0b7c00UL,
  0xfe001d825d000803UL, 0xfdff315100000162UL, 0xfdff1d8b0000f5fbUL, 0xfe0023450000f1b0UL,
  0xfdff2a040000072aUL, 0xfe00145e0000f2deUL, 0xfe0018090000032eUL, 0xfdff34a800000cc5UL,
  0xfdff3eb70000ef8bUL, 0xfe00213e0000f924UL, 0xfdff0b1500000298UL, 0xfdff4c520000fb26UL,
  0xfe00246a0000f2e1UL, 0xfdff254000001d96UL, 0xfe0022570000ef1fUL, 0xfe0025ba00000c57UL,
  0xfdff47ff0000054eUL, 0xfe0018a70000f700UL, 0xfdff22bf000005c7UL, 0xfdff213f0000f041UL,
  0xfe002d7b0000fce2UL, 0xfdff433d00000665UL, 0xfe001afd0000f364UL, 0xfdff2259000000d7UL,
  0xfdff30670000f182UL, 0xfe001f7c0000e4c5UL, 0xfe001d72000002f3UL, 0xfdff253000000f2eUL,
  0xfdff2ad70000f6b3UL, 0xfe0024d50000fbfbUL, 0xfdff23ec000001baUL, 0xfdff18080000f794UL,
  0x008022a10000fe7fUL, 0x0800000068000042UL, 0x68027c0015000000UL, 0x6807004300070000UL,
  0x0000002000004000UL, 0x00000000680c0043UL, 0x0080206110411041UL, 0x0008010020007c00UL,
  0x3410000020020043UL, 0x200500c300020000UL, 0x0008000000000000UL, 0x0000000000000001UL,
  0x0010000000000024UL, 0x00000006200c0042UL, 0x200d004300000007UL, 0x3418003f00000004UL,
  0x0000000020110043UL, 0x0080202100000000UL, 0x0008018418007c00UL, 0x0000900018020043UL,
  0x180500c300002400UL, 0x0000000000000000UL, 0x0000000000000000UL, 0x0010000000000024UL,
  0x00000006180c0042UL, 0x180d004300000007UL, 0x0000b43f00000001UL, 0x0000000018110043UL,
  0x0080208100000008UL, 0x0008010024007c00UL, 0x3412000024020043UL, 0x240500c300020000UL,
  0x0008000000000000UL, 0x0000000000000001UL, 0x0010000000000024UL, 0x00000006240c0042UL,
  0x240d004300000007UL, 0x3418003f00000004UL, 0x0000000024110043UL, 0x008020c100000000UL,
  0x000801002c007c00UL, 0x341400002c020043UL, 0x2c0500c300020000UL, 0x0008000000000000UL,
  0x0000000000000001UL, 0x0010000000000024UL, 0x000000062c0c0042UL, 0x2c0d004300000007UL,
  0x3418003f00000004UL, 0x000000002c110043UL, 0x008020e100000000UL, 0x0008010030007c00UL,
  0x3416000030020043UL, 0x300500c300020000UL, 0x0008000000000000UL, 0x0000000000000001UL,
  0x0010000000000024UL, 0x00000006300c0042UL, 0x300d004300000007UL, 0x3418003f00000004UL,
  0x0000000030110043UL, 0x0080210100000000UL, 0x0008010834007c00UL, 0x3418000034020043UL,
  0x340500c300020000UL, 0x0002000000000000UL, 0x0000000000000000UL, 0x0010000000000024UL,
  0x00000006340c0042UL, 0x340d004300000007UL, 0x3420003f00000004UL, 0x0000000034110043UL,
  0x100a7c0000000000UL, 0x100c00430000002bUL, 0x0000000300000007UL, 0x00000009100f0123UL,
  0x0000001500000003UL, 0x000000030000000dUL, 0x0000000f00000017UL, 0x0000001900000003UL,
  0x0000001b101e7c00UL, 0x0000002510247c00UL, 0x0000000110007c00UL, 0x3c007c0034002001UL,
  0x40007c0000100035UL, 0x44007c0000100021UL, 0x48007c0000100021UL, 0x5c00200100100021UL,
  0x1800200168002001UL, 0x2400200120002001UL, 0x300020012c002001UL, 0x0000006434007fe4UL,
  0x10007c0000000000UL, 0x1000042400000002UL, 0x0000000000000064UL, 0x4000000010007c00UL,
  0x0000006410007bc4UL, 0x100a7c0000000000UL, 0x100c004300000000UL, 0x0000000000000000UL,
  0x00000000100f0123UL, 0x0000000000000000UL, 0x0000000000000000UL, 0x0000000000000000UL,
  0x0000000000000000UL, 0x00000000101e7c00UL, 0x0000000010247c00UL, 0x0000000234007c00UL,
  0x0000006434000424UL, 0x34007c0000000000UL, 0x34007bc440000000UL, 0x0000000000000064UL,
  0x3c007c0000800101UL, 0x3c00042400000002UL, 0x0000000000000064UL, 0x400000003c007c00UL,
  0x000000643c007bc4UL, 0x0080014100000000UL, 0x0000000240007c00UL, 0x0000006440000424UL,
  0x40007c0000000000UL, 0x40007bc440000000UL, 0x0000000000000064UL, 0x44007c0000800161UL,
  0x4400042400000002UL, 0x0000000000000064UL, 0x4000000044007c00UL, 0x0000006444007bc4UL,
  0x0080018100000000UL, 0x0000000248007c00UL, 0x0000006448000424UL, 0x48007c0000000000UL,
  0x48007bc440000000UL, 0x0000000000000064UL, 0x5c007c00008001a1UL, 0x5c00042408000002UL,
  0x0000000000000064UL, 0x480000005c007c00UL, 0x000000645c007bc4UL, 0x0080024100000000UL,
  0x0800000268007c00UL, 0x0000006468000424UL, 0x68007c0000000000UL, 0x68007bc448000000UL,
  0x0000000000000064UL, 0x18007c00008002a1UL, 0x1800042400000002UL, 0x0000000000000064UL,
  0x4000000018007c00UL, 0x0000006418007bc4UL, 0x0080002100000000UL, 0x0000000220007c00UL,
  0x0000006420000424UL, 0x20007c0000000000UL, 0x20007bc440000000UL, 0x0000000000000064UL,
  0x24007c0000800061UL, 0x2400042400000002UL, 0x0000000000000064UL, 0x4000000024007c00UL,
  0x0000006424007bc4UL, 0x0080008100000000UL, 0x000000022c007c00UL, 0x000000642c000424UL,
  0x2c007c0000000000UL, 0x2c007bc440000000UL, 0x0000000000000064UL, 0x30007c00008000c1UL,
  0x3000042400000002UL, 0x0000000000000064UL, 0x4000000030007c00UL, 0x0000006430007bc4UL,
  0x008000e100000000UL, 0x008021410000011dUL, 0x001000343c007c00UL, 0x080803033c0200e3UL,
  0x1077400600001155UL, 0x03ff000000800400UL, 0x00070020007f0000UL, 0x000000003c0a7c00UL,
  0x000000003c0d7c00UL, 0x40007c0000802161UL, 0x400200e300100020UL, 0x0000115508080303UL,
  0x0080040010774000UL, 0x007f000003ff0000UL, 0x400a7c00000f0820UL, 0x400d7c0000000000UL,
  0x0080218100000000UL, 0x0010002044007c00UL, 0x08080303440200e3UL, 0x1077400000001155UL,
  0x03ff000000800400UL, 0x00171020007f0000UL, 0x00000000440a7c00UL, 0x00000000440d7c00UL,
  0x48007c00008021a1UL, 0x480200e300100020UL, 0x0000115508080303UL, 0x0080040010634600UL,
  0x007f000003ff0000UL, 0x480a7c00001f1820UL, 0x480d7c0000000000UL, 0x0080226100000000UL,
  0x0800000060000042UL, 0x60020123156000fcUL, 0x0000000000088000UL, 0x0001ffff00000007UL,
  0x000000000007ffffUL, 0x078403f900000000UL, 0x600c004300000001UL, 0x2042204200000000UL,
  0x00000001600b7c00UL, 0xff001af761000803UL, 0xff001b9d000000d7UL, 0xff001977000000dcUL,
  0xfeff0a4500000394UL, 0xfeff11080000fb81UL, 0xfeff286f0000fe23UL, 0xff0017510000faf2UL,
  0xfeff1a85000000baUL, 0xfeff58870000f8f4UL, 0xfeff32aa0000fd3bUL, 0xfeff12ee0000ff35UL,
  0xfeff16bc0000fe85UL, 0xff0016ae0000ff4aUL, 0xff0027b500000220UL, 0xff00183300000000UL,
  0xfeff1bd8000000c1UL, 0xff00142a0000feb1UL, 0xfeff1a6b00000234UL, 0xff001f1e0000ff2cUL,
  0xfeff1d51000002eaUL, 0xfeff091f0000fccbUL, 0xff0020290000fd93UL, 0xfeff260700000181UL,
  0xff0029d80000fc6fUL, 0xfeff28960000014eUL, 0xfeff29690000fcd4UL, 0xfeff18a90000fc1eUL,
  0xff00226a0000fed8UL, 0xff0010e900000113UL, 0xff001b63000003b3UL, 0xfeff254c0000036cUL,
  0xff0032f40000f86cUL, 0x008022810000032fUL, 0x0800000064000042UL, 0x64027c0015000000UL,
  0x6407004300070000UL, 0x0000002000004000UL, 0x00000000640c0043UL, 0x0080200110411041UL,
  0x0008010014007c00UL, 0x3418000014020043UL, 0x140500c300020000UL, 0x0008000000000000UL,
  0x0000000000000001UL, 0x0010000000000024UL, 0x00000006140c0042UL, 0x140d004300000007UL,
  0x3420003f00000004UL, 0x0000000014110043UL, 0x0080212100000000UL, 0x0008018438007c00UL,
  0x0000b40038020043UL, 0x380500c300002400UL, 0x0000000000000000UL, 0x0000000000000000UL,
  0x0010000000000024UL, 0x00000006380c0042UL, 0x380d004300000007UL, 0x0000d83f00000001UL,
  0x0000000038110043UL, 0x0080210100000008UL, 0x0008010034007c00UL, 0x341a000034020043UL,
  0x340500c300020000UL, 0x0008000000000000UL, 0x0000000000000001UL, 0x0010000000000024UL,
  0x00000006340c0042UL, 0x340d004300000007UL, 0x3420003f00000004UL, 0x0000000034110043UL,
  0x0080202100000000UL, 0x0008010018007c00UL, 0x341c000018020043UL, 0x180500c300020000UL,
  0x0008000000000000UL, 0x0000000000000001UL, 0x0010000000000024UL, 0x00000006180c0042UL,
  0x180d004300000007UL, 0x3420003f00000004UL, 0x0000000018110043UL, 0x0080206100000000UL,
  0x0008010020007c00UL, 0x341e000020020043UL, 0x200500c300020000UL, 0x0008000000000000UL,
  0x0000000000000001UL, 0x0010000000000024UL, 0x00000006200c0042UL, 0x200d004300000007UL,
  0x3420003f00000004UL, 0x0000000020110043UL, 0x008020a100000000UL, 0x0008010828007c00UL,
  0x3410000028020043UL, 0x280500c300020000UL, 0x0002000000000000UL, 0x0000000000000000UL,
  0x0010000000000024UL, 0x00000006280c0042UL, 0x280d004300000007UL, 0x3418003f00000004UL,
  0x0000000028110043UL, 0x10077c0000000000UL, 0x100c004300000029UL, 0x0000001300000001UL,
  0x00000011100f0123UL, 0x0000001500000013UL, 0x0000001300000003UL, 0x0000000700000017UL,
  0x0000001900000013UL, 0x0000001b10207c00UL, 0x0000002710227c00UL, 0x0000000110007c00UL,
  0x3c007c0028002001UL, 0x40007c0000100035UL, 0x44007c0000100021UL, 0x48007c0000100021UL,
  0x6000200100100021UL, 0x1400200164002001UL, 0x2000200118002001UL, 0x3800200134002001UL,
  0x0000006428007fe4UL, 0x10007c0000000000UL, 0x1000042400000002UL, 0x0000000000000064UL,
  0x4000000010007c00UL, 0x0000006410007bc4UL, 0x10077c0000000000UL, 0x100c004300000000UL,
  0x0000000000000000UL, 0x00000000100f0123UL, 0x0000000000000000UL, 0x0000000000000000UL,
  0x0000000000000000UL, 0x0000000000000000UL, 0x0000000010207c00UL, 0x0000000010227c00UL,
  0x0000000228007c00UL, 0x0000006428000424UL, 0x28007c0000000000UL, 0x28007bc440000000UL,
  0x0000000000000064UL, 0x3c007c00008000a1UL, 0x3c00042400000002UL, 0x0000000000000064UL,
  0x400000003c007c00UL, 0x000000643c007bc4UL, 0x0080014100000000UL, 0x0000000240007c00UL,
  0x0000006440000424UL, 0x40007c0000000000UL, 0x40007bc440000000UL, 0x0000000000000064UL,
  0x44007c0000800161UL, 0x4400042400000002UL, 0x0000000000000064UL, 0x4000000044007c00UL,
  0x0000006444007bc4UL, 0x0080018100000000UL, 0x0000000248007c00UL, 0x0000006448000424UL,
  0x48007c0000000000UL, 0x48007bc440000000UL, 0x0000000000000064UL, 0x60007c00008001a1UL,
  0x6000042408000002UL, 0x0000000000000064UL, 0x4800000060007c00UL, 0x0000006460007bc4UL,
  0x0080026100000000UL, 0x0800000264007c00UL, 0x0000006464000424UL, 0x64007c0000000000UL,
  0x64007bc448000000UL, 0x0000000000000064UL, 0x14007c0000800281UL, 0x1400042400000002UL,
  0x0000000000000064UL, 0x4000000014007c00UL, 0x0000006414007bc4UL, 0x0080000100000000UL,
  0x0000000218007c00UL, 0x0000006418000424UL, 0x18007c0000000000UL, 0x18007bc440000000UL,
  0x0000000000000064UL, 0x20007c0000800021UL, 0x2000042400000002UL, 0x0000000000000064UL,
  0x4000000020007c00UL, 0x0000006420007bc4UL, 0x0080006100000000UL, 0x0000000234007c00UL,
  0x0000006434000424UL, 0x34007c0000000000UL, 0x34007bc440000000UL, 0x0000000000000064UL,
  0x38007c0000800101UL, 0x3800042400000002UL, 0x0000000000000064UL, 0x4000000038007c00UL,
  0x0000006438007bc4UL, 0x0080012100000000UL, 0x008021410000013dUL, 0x001000343c007c00UL,
  0x080803033c0200e3UL, 0x1077400600001155UL, 0x03ff000000800400UL, 0x00070020007f0000UL,
  0x000000003c0a7c00UL, 0x000000003c0d7c00UL, 0x40007c0000802161UL, 0x400200e300100020UL,
  0x0000115508080303UL, 0x0080040010774000UL, 0x007f000003ff0000UL, 0x400a7c00000f0820UL,
  0x400d7c0000000000UL, 0x0080218100000000UL, 0x0010002044007c00UL, 0x08080303440200e3UL,
  0x1077400000001155UL, 0x03ff000000800400UL, 0x00171020007f0000UL, 0x00000000440a7c00UL,
  0x00000000440d7c00UL, 0x48007c00008021a1UL, 0x480200e300100020UL, 0x0000115508080303UL,
  0x0080040010634600UL, 0x007f000003ff0000UL, 0x480a7c00001f1820UL, 0x480d7c0000000000UL,
  0x0080224100000000UL, 0x080000005c000042UL, 0x5c020123156000fcUL, 0x0000000000090000UL,
  0x0001ffff00000007UL, 0x000000000007ffffUL, 0x078403f900000000UL, 0x5c0c004300000001UL,
  0x2042204200000000UL, 0x000000015c0b7c00UL, 0xfe00243c5d000803UL, 0xfe000f3100000000UL,
  0xfe0026160000012fUL, 0xfdff330d00000000UL, 0xfe00228c0000fe67UL, 0xfe0056990000078eUL,
  0xfe001fb40000015aUL, 0xfdff0fca00000475UL, 0xfe00262c0000fccaUL, 0xfe003fd6000001caUL,
  0xfe001ae1000006fbUL, 0xfdff0dbb0000078fUL, 0xfe00191a0000f990UL, 0xfe00487e00000000UL,
  0xfdff20c700000365UL, 0xfe00192f0000fa5dUL, 0xfe003c37000002c1UL, 0xfe001cc9000005a5UL,
  0xfe00340f00000159UL, 0xfe003d73000000d0UL, 0xfdff3987000005c2UL, 0xfe002e390000ff19UL,
  0xfe0022c100000455UL, 0xfdff1fdd0000022cUL, 0xfdff45fc0000fc04UL, 0xfdff20b60000fa88UL,
  0xfe0027d80000fefaUL, 0xfdff0d360000031cUL, 0xfe001f0d0000fb40UL, 0xfe0045dc000001f0UL,
  0xfe00299900000000UL, 0xfe00350600000000UL, 0x008022a100000350UL, 0x0800000068000042UL,
  0x68027c0015000000UL, 0x6807004300070000UL, 0x0000002000004000UL, 0x00000000680c0043UL,
  0x0080212110411041UL, 0x0008010038007c00UL, 0x3410000038020043UL, 0x380500c300020000UL,
  0x0008000000000000UL, 0x0000000000000001UL, 0x0010000000000024UL, 0x00000006380c0042UL,
  0x380d004300000007UL, 0x3418003f00000004UL, 0x0000000038110043UL, 0x008020a100000000UL,
  0x0008018428007c00UL, 0x0000d80028020043UL, 0x280500c300002400UL, 0x0000000000000000UL,
  0x0000000000000000UL, 0x0010000000000024UL, 0x00000006280c0042UL, 0x280d004300000007UL,
  0x0000fc3f00000001UL, 0x0000000028110043UL, 0x0080200100000008UL, 0x0008010014007c00UL,
  0x3412000014020043UL, 0x140500c300020000UL, 0x0008000000000000UL, 0x0000000000000001UL,
  0x0010000000000024UL, 0x00000006140c0042UL, 0x140d004300000007UL, 0x3418003f00000004UL,
  0x0000000014110043UL, 0x0080202100000000UL, 0x0008010018007c00UL, 0x3414000018020043UL,
  0x180500c300020000UL, 0x0008000000000000UL, 0x0000000000000001UL, 0x0010000000000024UL,
  0x00000006180c0042UL, 0x180d004300000007UL, 0x3418003f00000004UL, 0x0000000018110043UL,
  0x0080210100000000UL, 0x0008010034007c00UL, 0x3416000034020043UL, 0x340500c300020000UL,
  0x0008000000000000UL, 0x0000000000000001UL, 0x0010000000000024UL, 0x00000006340c0042UL,
  0x340d004300000007UL, 0x3418003f00000004UL, 0x0000000034110043UL, 0x0080208100000000UL,
  0x0008010824007c00UL, 0x3418000024020043UL, 0x240500c300020000UL, 0x0002000000000000UL,
  0x0000000000000000UL, 0x0010000000000024UL, 0x00000006240c0042UL, 0x240d004300000007UL,
  0x3420003f00000004UL, 0x0000000024110043UL, 0x10067c0000000000UL, 0x100c00430000002bUL,
  0x0000000b00000013UL, 0x00000001100f0123UL, 0x000000150000000bUL, 0x0000000b00000003UL,
  0x0000001100000017UL, 0x000000190000000bUL, 0x0000001b101e7c00UL, 0x0000002510247c00UL,
  0x0000000110007c00UL, 0x3c007c0024002001UL, 0x40007c0000100035UL, 0x44007c0000100021UL,
  0x48007c0000100021UL, 0x5c00200100100021UL, 0x1400200168002001UL, 0x2800200118002001UL,
  0x3800200134002001UL, 0x0000006424007fe4UL, 0x10007c0000000000UL, 0x1000042400000002UL,
  0x0000000000000064UL, 0x4000000010007c00UL, 0x0000006410007bc4UL, 0x10067c0000000000UL,
  0x100c004300000000UL, 0x0000000000000000UL, 0x00000000100f0123UL, 0x0000000000000000UL,
  0x0000000000000000UL, 0x0000000000000000UL, 0x0000000000000000UL, 0x00000000101e7c00UL,
  0x0000000010247c00UL, 0x0000000224007c00UL, 0x0000006424000424UL, 0x24007c0000000000UL,
  0x24007bc440000000UL, 0x0000000000000064UL, 0x3c007c0000800081UL, 0x3c00042400000002UL,
  0x0000000000000064UL, 0x400000003c007c00UL, 0x000000643c007bc4UL, 0x0080014100000000UL,
  0x0000000240007c00UL, 0x0000006440000424UL, 0x40007c0000000000UL, 0x40007bc440000000UL,
  0x0000000000000064UL, 0x44007c0000800161UL, 0x4400042400000002UL, 0x0000000000000064UL,
  0x4000000044007c00UL, 0x0000006444007bc4UL, 0x0080018100000000UL, 0x0000000248007c00UL,
  0x0000006448000424UL, 0x48007c0000000000UL, 0x48007bc440000000UL, 0x0000000000000064UL,
  0x5c007c00008001a1UL, 0x5c00042408000002UL, 0x0000000000000064UL, 0x480000005c007c00UL,
  0x000000645c007bc4UL, 0x0080024100000000UL, 0x0800000268007c00UL, 0x0000006468000424UL,
  0x68007c0000000000UL, 0x68007bc448000000UL, 0x0000000000000064UL, 0x14007c00008002a1UL,
  0x1400042400000002UL, 0x0000000000000064UL, 0x4000000014007c00UL, 0x0000006414007bc4UL,
  0x0080000100000000UL, 0x0000000218007c00UL, 0x0000006418000424UL, 0x18007c0000000000UL,
  0x18007bc440000000UL, 0x0000000000000064UL, 0x28007c0000800021UL, 0x2800042400000002UL,
  0x0000000000000064UL, 0x4000000028007c00UL, 0x0000006428007bc4UL, 0x008000a100000000UL,
  0x0000000234007c00UL, 0x0000006434000424UL, 0x34007c0000000000UL, 0x34007bc440000000UL,
  0x0000000000000064UL, 0x38007c0000800101UL, 0x3800042400000002UL, 0x0000000000000064UL,
  0x4000000038007c00UL, 0x0000006438007bc4UL, 0x0080012100000000UL, 0x008021410000015dUL,
  0x001000343c007c00UL, 0x080803033c0200e3UL, 0x1077400500001155UL, 0x03ff000000800400UL,
  0x00070020007f0000UL, 0x000000003c0a7c00UL, 0x000000003c0d7c00UL, 0x40007c0000802161UL,
  0x400200e300100020UL, 0x0000115508080303UL, 0x0080040010774000UL, 0x007f000003ff0000UL,
  0x400a7c00000f0820UL, 0x400d7c0000000000UL, 0x0080218100000000UL, 0x0010002044007c00UL,
  0x08080303440200e3UL, 0x1077400000001155UL, 0x03ff000000800400UL, 0x00171020007f0000UL,
  0x00000000440a7c00UL, 0x00000000440d7c00UL, 0x48007c00008021a1UL, 0x480200e300100020UL,
  0x0000115508080303UL, 0x0080040010634500UL, 0x007f000003ff0000UL, 0x480a7c00001f1820UL,
  0x480d7c0000000000UL, 0x0080226100000000UL, 0x0800000060000042UL, 0x60020123156000fcUL,
  0x0000000000090000UL, 0x0001ffff00000007UL, 0x000000000007ffffUL, 0x078403f900000000UL,
  0x600c004300000001UL, 0x2042204200000000UL, 0x00000001600b7c00UL, 0xfdff26d561000803UL,
  0xfdff2bcf0000f9eeUL, 0xfe0026640000fea1UL, 0xfe004ffd00000133UL, 0xfdff22320000027fUL,
  0xfe002a670000feeeUL, 0xfdff1b7900000000UL, 0xfdff1b320000fc90UL, 0xfe002cbb0000fbc0UL,
  0xfdff235400000431UL, 0xfdff2e360000fee5UL, 0xfdff22080000fe8eUL, 0xfdff10a80000fccfUL,
  0xfe00305a0000fbd5UL, 0xfe0020ea00000488UL, 0xfe00246700000107UL, 0xfdff136200000123UL,
  0xfe00153a0000fa8cUL, 0xfdff31f600000153UL, 0xfdff26560000fe70UL, 0xfdff1a640000fecdUL,
  0xfe0029b20000ff2cUL, 0xfe0030430000014dUL, 0xfe0046af00000000UL, 0xfdff17eb00000b0bUL,
  0xfdff159f0000fc43UL, 0xfe002f6e0000fb45UL, 0xfe00232c000005edUL, 0xfe001d3500000232UL,
  0xfdff223700000000UL, 0xfdff23be0000fbb9UL, 0xfe00409e0000fca6UL, 0x0080228100000000UL,
  0x0800000064000042UL, 0x64027c0015000000UL, 0x6407004300070000UL, 0x0000002000004000UL,
  0x00000000640c0043UL, 0x0080202110411041UL, 0x0008010018007c00UL, 0x3418000018020043UL,
  0x180500c300020000UL, 0x0008000000000000UL, 0x0000000000000001UL, 0x0010000000000024UL,
  0x00000006180c0042UL, 0x180d004300000007UL, 0x3420003f00000004UL, 0x0000000018110043UL,
  0x0080206100000000UL, 0x0008018420007c00UL, 0x0000fc0020020043UL, 0x200500c300002400UL,
  0x0000000000000000UL, 0x0000000000000000UL, 0x0010000000000024UL, 0x00000006200c0042UL,
  0x200d004300000007UL, 0x0001203f00000001UL, 0x0000000020110043UL, 0x008020c100000008UL,
  0x000801002c007c00UL, 0x341a00002c020043UL, 0x2c0500c300020000UL, 0x0008000000000000UL,
  0x0000000000000001UL, 0x0010000000000024UL, 0x000000062c0c0042UL, 0x2c0d004300000007UL,
  0x3420003f00000004UL, 0x000000002c110043UL, 0x0080200100000000UL, 0x0008010014007c00UL,
  0x341c000014020043UL, 0x140500c300020000UL, 0x0008000000000000UL, 0x0000000000000001UL,
  0x0010000000000024UL, 0x00000006140c0042UL, 0x140d004300000007UL, 0x3420003f00000004UL,
  0x0000000014110043UL, 0x008020a100000000UL, 0x0008010028007c00UL, 0x341e000028020043UL,
  0x280500c300020000UL, 0x0008000000000000UL, 0x0000000000000001UL, 0x0010000000000024UL,
  0x00000006280c0042UL, 0x280d004300000007UL, 0x3420003f00000004UL, 0x0000000028110043UL,
  0x0080212100000000UL, 0x0008010838007c00UL, 0x3410000038020043UL, 0x380500c300020000UL,
  0x0002000000000000UL, 0x0000000000000000UL, 0x0010000000000024UL, 0x00000006380c0042UL,
  0x380d004300000007UL, 0x3418003f00000004UL, 0x0000000038110043UL, 0x100b006300000000UL,
  0x0000000300000029UL, 0x100f012300000007UL, 0x000000070000000dUL, 0x0000000100000015UL,
  0x0000001700000007UL, 0x000000070000000bUL, 0x10207c0000000019UL, 0x10227c000000001bUL,
  0x10007c0000000027UL, 0x3800200100000001UL, 0x001000353c007c00UL, 0x0010002140007c00UL,
  0x0010002144007c00UL, 0x0010002148007c00UL, 0x6400200160002001UL, 0x1800200114002001UL,
  0x2800200120002001UL, 0x38007fe42c002001UL, 0x0000000000000064UL, 0x0000000210007c00UL,
  0x0000006410000424UL, 0x10007c0000000000UL, 0x10007bc440000000UL, 0x0000000000000064UL,
  0x00000000100b0063UL, 0x0000000000000000UL, 0x00000000100f0123UL, 0x0000000000000000UL,
  0x0000000000000000UL, 0x0000000000000000UL, 0x0000000000000000UL, 0x0000000010207c00UL,
  0x0000000010227c00UL, 0x0000000238007c00UL, 0x0000006438000424UL, 0x38007c0000000000UL,
  0x38007bc440000000UL, 0x0000000000000064UL, 0x3c007c0000800121UL, 0x3c00042400000002UL,
  0x0000000000000064UL, 0x400000003c007c00UL, 0x000000643c007bc4UL, 0x0080014100000000UL,
  0x0000000240007c00UL, 0x0000006440000424UL, 0x40007c0000000000UL, 0x40007bc440000000UL,
  0x0000000000000064UL, 0x44007c0000800161UL, 0x4400042400000002UL, 0x0000000000000064UL,
  0x4000000044007c00UL, 0x0000006444007bc4UL, 0x0080018100000000UL, 0x0000000248007c00UL,
  0x0000006448000424UL, 0x48007c0000000000UL, 0x48007bc440000000UL, 0x0000000000000064UL,
  0x60007c00008001a1UL, 0x6000042408000002UL, 0x0000000000000064UL, 0x4800000060007c00UL,
  0x0000006460007bc4UL, 0x0080026100000000UL, 0x0800000264007c00UL, 0x0000006464000424UL,
  0x64007c0000000000UL, 0x64007bc448000000UL, 0x0000000000000064UL, 0x14007c0000800281UL,
  0x1400042400000002UL, 0x0000000000000064UL, 0x4000000014007c00UL, 0x0000006414007bc4UL,
  0x0080000100000000UL, 0x0000000218007c00UL, 0x0000006418000424UL, 0x18007c0000000000UL,
  0x18007bc440000000UL, 0x0000000000000064UL, 0x20007c0000800021UL, 0x2000042400000002UL,
  0x0000000000000064UL, 0x4000000020007c00UL, 0x0000006420007bc4UL, 0x0080006100000000UL,
  0x0000000228007c00UL, 0x0000006428000424UL, 0x28007c0000000000UL, 0x28007bc440000000UL,
  0x0000000000000064UL, 0x2c007c00008000a1UL, 0x2c00042400000002UL, 0x0000000000000064UL,
  0x400000002c007c00UL, 0x000000642c007bc4UL, 0x008000c100000000UL, 0x008021410000017dUL,
  0x001000343c007c00UL, 0x080803033c0200e3UL, 0x1077400600001155UL, 0x03ff000000800400UL,
  0x00070020007f0000UL, 0x000000003c0a7c00UL, 0x000000003c0d7c00UL, 0x40007c0000802161UL,
  0x400200e300100020UL, 0x0000115508080303UL, 0x0080040010774000UL, 0x007f000003ff0000UL,
  0x400a7c00000f0820UL, 0x400d7c0000000000UL, 0x0080218100000000UL, 0x0010002044007c00UL,
  0x08080303440200e3UL, 0x1077400000001155UL, 0x03ff000000800400UL, 0x00171020007f0000UL,
  0x00000000440a7c00UL, 0x00000000440d7c00UL, 0x48007c00008021a1UL, 0x480200e300100020UL,
  0x0000115508080303UL, 0x0080040010634600UL, 0x007f000003ff0000UL, 0x480a7c00001f1820UL,
  0x480d7c0000000000UL, 0x0080224100000000UL, 0x080000005c000042UL, 0x5c020123156000fcUL,
  0x0000000000070000UL, 0x0001ffff00000007UL, 0x000000000007ffffUL, 0x078403f900000000UL,
  0x5c0c004300000001UL, 0x2042204200000000UL, 0x000000015c0b7c00UL, 0xffe005c75d000803UL,
  0xffe0151100000073UL, 0xffdf0bfd00000000UL, 0xffe04cac0000ffd0UL, 0xffe00f1700000000UL,
  0xffe00d73000000b5UL, 0xffe00a39000000a1UL, 0xffe01368000000a3UL, 0xffe0112d00000000UL,
  0xffdf0a8200000044UL, 0xffe0088d0000ff2dUL, 0xffe0116f00000000UL, 0xffe00c88000000d1UL,
  0xffe008fe00000032UL, 0xffe016cb00000023UL, 0xffe00a67000000b6UL, 0xffdf07f0000000d0UL,
  0xffe010700000ff61UL, 0xffe022cb00000000UL, 0xffe019cb0000008bUL, 0xffe0081100000000UL,
  0xffe00a4500000020UL, 0xffe0126600000052UL, 0xffe0249600000093UL, 0xffdf0ab500000092UL,
  0xffe011910000ff54UL, 0xffdf0c5300000000UL, 0xffe00b4b0000ffceUL, 0xffe0153b0000005aUL,
  0xffe00ae000000054UL, 0xffdf0cad00000000UL, 0xffe00ce10000ff67UL, 0x008022a1000000ceUL,
  0x0800000068000042UL, 0x68027c0015000000UL, 0x6807004300070000UL, 0x0000002000004000UL,
  0x00000000680c0043UL, 0x0080206110411041UL, 0x0008010020007c00UL, 0x3410000020020043UL,
  0x200500c300020000UL, 0x0008000000000000UL, 0x0000000000000001UL, 0x0010000000000024UL,
  0x00000006200c0042UL, 0x200d004300000007UL, 0x3418003f00000004UL, 0x0000000020110043UL,
  0x0080204100000000UL, 0x000801841c007c00UL, 0x000120001c020043UL, 0x1c0500c300002400UL,
  0x0000000000000000UL, 0x0000000000000000UL, 0x0010000000000024UL, 0x000000061c0c0042UL,
  0x1c0d004300000007UL, 0x0001443f00000001UL, 0x000000001c110043UL, 0x0080212100000008UL,
  0x0008010038007c00UL, 0x3412000038020043UL, 0x380500c300020000UL, 0x0008000000000000UL,
  0x0000000000000001UL, 0x0010000000000024UL, 0x00000006380c0042UL, 0x380d004300000007UL,
  0x3418003f00000004UL, 0x0000000038110043UL, 0x0080202100000000UL, 0x0008010018007c00UL,
  0x3414000018020043UL, 0x180500c300020000UL, 0x0008000000000000UL, 0x0000000000000001UL,
  0x0010000000000024UL, 0x00000006180c0042UL, 0x180d004300000007UL, 0x3418003f00000004UL,
  0x0000000018110043UL, 0x008020a100000000UL, 0x0008010028007c00UL, 0x3416000028020043UL,
  0x280500c300020000UL, 0x0008000000000000UL, 0x0000000000000001UL, 0x0010000000000024UL,
  0x00000006280c0042UL, 0x280d004300000007UL, 0x3418003f00000004UL, 0x0000000028110043UL,
  0x0080210100000000UL, 0x0008010834007c00UL, 0x3418000034020043UL, 0x340500c300020000UL,
  0x0002000000000000UL, 0x0000000000000000UL, 0x0010000000000024UL, 0x00000006340c0042UL,
  0x340d004300000007UL, 0x3420003f00000004UL, 0x0000000034110043UL, 0x100a7c0000000000UL,
  0x100c00430000002bUL, 0x0000000500000007UL, 0x00000013100f0123UL, 0x0000001500000005UL,
  0x0000000500000003UL, 0x0000000b00000017UL, 0x0000001900000005UL, 0x0000001b101e7c00UL,
  0x0000002510247c00UL, 0x0000000110007c00UL, 0x3c007c0034002001UL, 0x40007c0000100035UL,
  0x44007c0000100021UL, 0x48007c0000100021UL, 0x5c00200100100021UL, 0x1800200168002001UL,
  0x200020011c002001UL, 0x3800200128002001UL, 0x0000006434007fe4UL, 0x10007c0000000000UL,
  0x1000042400000002UL, 0x0000000000000064UL, 0x4000000010007c00UL, 0x0000006410007bc4UL,
  0x100a7c0000000000UL, 0x100c004300000000UL, 0x0000000000000000UL, 0x00000000100f0123UL,
  0x0000000000000000UL, 0x0000000000000000UL, 0x0000000000000000UL, 0x0000000000000000UL,
  0x00000000101e7c00UL, 0x0000000010247c00UL, 0x0000000234007c00UL, 0x0000006434000424UL,
  0x34007c0000000000UL, 0x34007bc440000000UL, 0x0000000000000064UL, 0x3c007c0000800101UL,
  0x3c00042400000002UL, 0x0000000000000064UL, 0x400000003c007c00UL, 0x000000643c007bc4UL,
  0x0080014100000000UL, 0x0000000240007c00UL, 0x0000006440000424UL, 0x40007c0000000000UL,
  0x40007bc440000000UL, 0x0000000000000064UL, 0x44007c0000800161UL, 0x4400042400000002UL,
  0x0000000000000064UL, 0x4000000044007c00UL, 0x0000006444007bc4UL, 0x0080018100000000UL,
  0x0000000248007c00UL, 0x0000006448000424UL, 0x48007c0000000000UL, 0x48007bc440000000UL,
  0x0000000000000064UL, 0x5c007c00008001a1UL, 0x5c00042408000002UL, 0x0000000000000064UL,
  0x480000005c007c00UL, 0x000000645c007bc4UL, 0x0080024100000000UL, 0x0800000268007c00UL,
  0x0000006468000424UL, 0x68007c0000000000UL, 0x68007bc448000000UL, 0x0000000000000064UL,
  0x18007c00008002a1UL, 0x1800042400000002UL, 0x0000000000000064UL, 0x4000000018007c00UL,
  0x0000006418007bc4UL, 0x0080002100000000UL, 0x000000021c007c00UL, 0x000000641c000424UL,
  0x1c007c0000000000UL, 0x1c007bc440000000UL, 0x0000000000000064UL, 0x20007c0000800041UL,
  0x2000042400000002UL, 0x0000000000000064UL, 0x4000000020007c00UL, 0x0000006420007bc4UL,
  0x0080006100000000UL, 0x0000000228007c00UL, 0x0000006428000424UL, 0x28007c0000000000UL,
  0x28007bc440000000UL, 0x0000000000000064UL, 0x38007c00008000a1UL, 0x3800042400000002UL,
  0x0000000000000064UL, 0x4000000038007c00UL, 0x0000006438007bc4UL, 0x0080012100000000UL,
  0x008021410000019dUL, 0x001000343c007c00UL, 0x080803033c0200e3UL, 0x1077400500001155UL,
  0x03ff000000800400UL, 0x00070020007f0000UL, 0x000000003c0a7c00UL, 0x000000003c0d7c00UL,
  0x40007c0000802161UL, 0x400200e300100020UL, 0x0000115508080303UL, 0x0080040010774000UL,
  0x007f000003ff0000UL, 0x400a7c00000f0820UL, 0x400d7c0000000000UL, 0x0080218100000000UL,
  0x0010002044007c00UL, 0x08080303440200e3UL, 0x1077400000001155UL, 0x03ff000000800400UL,
  0x00171020007f0000UL, 0x00000000440a7c00UL, 0x00000000440d7c00UL, 0x48007c00008021a1UL,
  0x480200e300100020UL, 0x0000115508080303UL, 0x0080040010634500UL, 0x007f000003ff0000UL,
  0x480a7c00001f1820UL, 0x480d7c0000000000UL, 0x0080226100000000UL, 0x0800000060000042UL,
  0x60020123156000fcUL, 0x0000000000090000UL, 0x0001ffff00000007UL, 0x000000000007ffffUL,
  0x078403f900000000UL, 0x600c004300000001UL, 0x2042204200000000UL, 0x00000001600b7c00UL,
  0xfe002a3561000803UL, 0xfe001bbb00000546UL, 0xfdff1d4d00000377UL, 0xfe0022da0000fe2bUL,
  0xfe0052e400000688UL, 0xfe0044d30000052eUL, 0xfe001bca00000000UL, 0xfdff2c460000098dUL,
  0xfe0023320000f7b2UL, 0xfe002fea000008ccUL, 0xfe00269100000000UL, 0xfe00197900000000UL,
  0xfe0024a70000072aUL, 0xfdff31cd00000a4fUL, 0xfdff19a40000f9c6UL, 0xfe001cc40000fccbUL,
  0xfdff3b350000047eUL, 0xfe0024490000fe26UL, 0xfe001d6e00000122UL, 0xfdff1cab00000584UL,
  0xfe0054bd0000fd4fUL, 0xfe0020ed000002a5UL, 0xfdff268b0000062cUL, 0xfe0024060000f8c6UL,
  0xfdff2c96000007e1UL, 0xfe00240c0000fbd1UL, 0xfe0019be00000240UL, 0xfdff23d500000000UL,
  0xfdff5ab40000fca4UL, 0xfdff26630000fd2aUL, 0xfdff1b730000fb33UL, 0xfdff50c60000ff24UL,
  0x008022810000fd79UL, 0x0800000064000042UL, 0x64027c0015000000UL, 0x6407004300070000UL,
  0x0000002000004000UL, 0x00000000640c0043UL, 0x0080210110411041UL, 0x0008010034007c00UL,
  0x3418000034020043UL, 0x340500c300020000UL, 0x0008000000000000UL, 0x0000000000000001UL,
  0x0010000000000024UL, 0x00000006340c0042UL, 0x340d004300000007UL, 0x3420003f00000004UL,
  0x0000000034110043UL, 0x0080206100000000UL, 0x0008018420007c00UL, 0x0001440020020043UL,
  0x200500c300002400UL, 0x0000000000000000UL, 0x0000000000000000UL, 0x0010000000000024UL,
  0x00000006200c0042UL, 0x200d004300000007UL, 0x0001683f00000001UL, 0x0000000020110043UL,
  0x0080212100000008UL, 0x0008010038007c00UL, 0x341a000038020043UL, 0x380500c300020000UL,
  0x0008000000000000UL, 0x0000000000000001UL, 0x0010000000000024UL, 0x00000006380c0042UL,
  0x380d004300000007UL, 0x3420003f00000004UL, 0x0000000038110043UL, 0x008020a100000000UL,
  0x0008010028007c00UL, 0x341c000028020043UL, 0x280500c300020000UL, 0x0008000000000000UL,
  0x0000000000000001UL, 0x0010000000000024UL, 0x00000006280c0042UL, 0x280d004300000007UL,
  0x3420003f00000004UL, 0x0000000028110043UL, 0x0080208100000000UL, 0x0008010024007c00UL,
  0x341e000024020043UL, 0x240500c300020000UL, 0x0008000000000000UL, 0x0000000000000001UL,
  0x0010000000000024UL, 0x00000006240c0042UL, 0x240d004300000007UL, 0x3420003f00000004UL,
  0x0000000024110043UL, 0x0080200100000000UL, 0x0008010814007c00UL, 0x3410000014020043UL,
  0x140500c300020000UL, 0x0002000000000000UL, 0x0000000000000000UL, 0x0010000000000024UL,
  0x00000006140c0042UL, 0x140d004300000007UL, 0x3418003f00000004UL, 0x0000000014110043UL,
  0x10027c0000000000UL, 0x100c004300000029UL, 0x0000000700000011UL, 0x00000013100f0123UL,
  0x0000001500000007UL, 0x000000070000000bUL, 0x0000000900000017UL, 0x0000001900000007UL,
  0x0000001b10207c00UL, 0x0000002710227c00UL, 0x0000000110007c00UL, 0x3c007c0014002001UL,
  0x40007c0000100035UL, 0x44007c0000100021UL, 0x48007c0000100021UL, 0x6000200100100021UL,
  0x2000200164002001UL, 0x2800200124002001UL, 0x3800200134002001UL, 0x0000006414007fe4UL,
  0x10007c0000000000UL, 0x1000042400000002UL, 0x0000000000000064UL, 0x4000000010007c00UL,
  0x0000006410007bc4UL, 0x10027c0000000000UL, 0x100c004300000000UL, 0x0000000000000000UL,
  0x00000000100f0123UL, 0x0000000000000000UL, 0x0000000000000000UL, 0x0000000000000000UL,
  0x0000000000000000UL, 0x0000000010207c00UL, 0x0000000010227c00UL, 0x0000000214007c00UL,
  0x0000006414000424UL, 0x14007c0000000000UL, 0x14007bc440000000UL, 0x0000000000000064UL,
  0x3c007c0000800001UL, 0x3c00042400000002UL, 0x0000000000000064UL, 0x400000003c007c00UL,
  0x000000643c007bc4UL, 0x0080014100000000UL, 0x0000000240007c00UL, 0x0000006440000424UL,
  0x40007c0000000000UL, 0x40007bc440000000UL, 0x0000000000000064UL, 0x44007c0000800161UL,
  0x4400042400000002UL, 0x0000000000000064UL, 0x4000000044007c00UL, 0x0000006444007bc4UL,
  0x0080018100000000UL, 0x0000000248007c00UL, 0x0000006448000424UL, 0x48007c0000000000UL,
  0x48007bc440000000UL, 0x0000000000000064UL, 0x60007c00008001a1UL, 0x6000042408000002UL,
  0x0000000000000064UL, 0x4800000060007c00UL, 0x0000006460007bc4UL, 0x0080026100000000UL,
  0x0800000264007c00UL, 0x0000006464000424UL, 0x64007c0000000000UL, 0x64007bc448000000UL,
  0x0000000000000064UL, 0x20007c0000800281UL, 0x2000042400000002UL, 0x0000000000000064UL,
  0x4000000020007c00UL, 0x0000006420007bc4UL, 0x0080006100000000UL, 0x0000000224007c00UL,
  0x0000006424000424UL, 0x24007c0000000000UL, 0x24007bc440000000UL, 0x0000000000000064UL,
  0x28007c0000800081UL, 0x2800042400000002UL, 0x0000000000000064UL, 0x4000000028007c00UL,
  0x0000006428007bc4UL, 0x008000a100000000UL, 0x0000000234007c00UL, 0x0000006434000424UL,
  0x34007c0000000000UL, 0x34007bc440000000UL, 0x0000000000000064UL, 0x38007c0000800101UL,
  0x3800042400000002UL, 0x0000000000000064UL, 0x4000000038007c00UL, 0x0000006438007bc4UL,
  0x0080012100000000UL, 0x00802141000001bdUL, 0x001000343c007c00UL, 0x080803033c0200e3UL,
  0x1077400500001155UL, 0x03ff000000800400UL, 0x00070020007f0000UL, 0x000000003c0a7c00UL,
  0x000000003c0d7c00UL, 0x40007c0000802161UL, 0x400200e300100020UL, 0x0000115508080303UL,
  0x0080040010774000UL, 0x007f000003ff0000UL, 0x400a7c00000f0820UL, 0x400d7c0000000000UL,
  0x0080218100000000UL, 0x0010002044007c00UL, 0x08080303440200e3UL, 0x1077400000001155UL,
  0x03ff000000800400UL, 0x00171020007f0000UL, 0x00000000440a7c00UL, 0x00000000440d7c00UL,
  0x48007c00008021a1UL, 0x480200e300100020UL, 0x0000115508080303UL, 0x0080040010634500UL,
  0x007f000003ff0000UL, 0x480a7c00001f1820UL, 0x480d7c0000000000UL, 0x0080224100000000UL,
  0x080000005c000042UL, 0x5c020123156000fcUL, 0x0000000000090000UL, 0x0001ffff00000007UL,
  0x000000000007ffffUL, 0x078403f900000000UL, 0x5c0c004300000001UL, 0x2042204200000000UL,
  0x000000015c0b7c00UL, 0xfdff3bc55d000803UL, 0xfe003c110000fa65UL, 0xfe0038ea00000000UL,
  0xfe003983000001c7UL, 0xfe00312a00000564UL, 0xfe0029df0000049bUL, 0xfe0038a10000014eUL,
  0xfdff460d0000038aUL, 0xfe0036b30000f73eUL, 0xfe002b130000036bUL, 0xfe0039af00000158UL,
  0xfe002ca500000000UL, 0xfdff398b00000000UL, 0xfe0022db0000fa9bUL, 0xfdff3e5900000344UL,
  0xfe0031960000fc1aUL, 0xfdff4ac70000018cUL, 0xfdff2db90000fb53UL, 0xfe0038f10000fd24UL,
  0xfdff15f9000001c7UL, 0xfe002b0b0000fd40UL, 0xfe003cc9000002b0UL, 0xfdff3eb600000b65UL,
  0xfe0036e60000fe0aUL, 0xfe0030ea000001b7UL, 0xfdff2df20000030eUL, 0xfe0038860000fd20UL,
  0xfe0042c200000000UL, 0xfe0042cf00000642UL, 0xfe0036ff00000000UL, 0xfdff39530000036fUL,
  0xfe0029b00000fe35UL, 0x008022a10000029bUL, 0x0800000068000042UL, 0x68027c0015000000UL,
  0x6807004300070000UL, 0x0000002000004000UL, 0x00000000680c0043UL, 0x0080210110411041UL,
  0x0008010034007c00UL, 0x3410000034020043UL, 0x340500c300020000UL, 0x0008000000000000UL,
  0x0000000000000001UL, 0x0010000000000024UL, 0x00000006340c0042UL, 0x340d004300000007UL,
  0x3418003f00000004UL, 0x0000000034110043UL, 0x0080206100000000UL, 0x0008018420007c00UL,
  0x0001680020020043UL, 0x200500c300002400UL, 0x0000000000000000UL, 0x0000000000000000UL,
  0x0010000000000024UL, 0x00000006200c0042UL, 0x200d004300000007UL, 0x00018c3f00000001UL,
  0x0000000020110043UL, 0x0080200100000008UL, 0x0008010014007c00UL, 0x3412000014020043UL,
  0x140500c300020000UL, 0x0008000000000000UL, 0x0000000000000001UL, 0x0010000000000024UL,
  0x00000006140c0042UL, 0x140d004300000007UL, 0x3418003f00000004UL, 0x0000000014110043UL,
  0x008020e100000000UL, 0x0008010030007c00UL, 0x3414000030020043UL, 0x300500c300020000UL,
  0x0008000000000000UL, 0x0000000000000001UL, 0x0010000000000024UL, 0x00000006300c0042UL,
  0x300d004300000007UL, 0x3418003f00000004UL, 0x0000000030110043UL, 0x0080208100000000UL,
  0x0008010024007c00UL, 0x3416000024020043UL, 0x240500c300020000UL, 0x0008000000000000UL,
  0x0000000000000001UL, 0x0010000000000024UL, 0x00000006240c0042UL, 0x240d004300000007UL,
  0x3418003f00000004UL, 0x0000000024110043UL, 0x0080212100000000UL, 0x0008000838007c00UL,
  0x3418000038020123UL, 0x0020000800800080UL, 0x0000000800001000UL, 0x0008000000000004UL,
  0x0010000000000024UL, 0x00000006380c0042UL, 0x380d004300000007UL, 0x3420003f00000004UL,
  0x0000000038110043UL, 0x100b006300000000UL, 0x000000110000002bUL, 0x100f012300000007UL,
  0x0000000700000001UL, 0x0000000f00000015UL, 0x0000001700000007UL, 0x0000000700000009UL,
  0x101e7c0000000019UL, 0x10247c000000001bUL, 0x10007c0000000025UL, 0x3800200100000001UL,
  0x001000353c007c00UL, 0x0010002140007c00UL, 0x0010002144007c00UL, 0x0010002148007c00UL,
  0x680020015c002001UL, 0x2000200114002001UL, 0x3000200124002001UL, 0x38007fe434002001UL,
  0x0000000000000064UL, 0x0000000210007c00UL, 0x0000006410000424UL, 0x10007c0000000000UL,
  0x10007bc440000000UL, 0x0000000000000064UL, 0x00000000100b0063UL, 0x0000000000000000UL,
  0x00000000100f0123UL, 0x0000000000000000UL, 0x0000000000000000UL, 0x0000000000000000UL,
  0x0000000000000000UL, 0x00000000101e7c00UL, 0x0000000010247c00UL, 0x0000000238007c00UL,
  0x0000006438000424UL, 0x38007c0000000000UL, 0x38007bc440000000UL, 0x0000000000000064UL,
  0x3c007c0000800121UL, 0x3c00042400000002UL, 0x0000000000000064UL, 0x400000003c007c00UL,
  0x000000643c007bc4UL, 0x0080014100000000UL, 0x0000000240007c00UL, 0x0000006440000424UL,
  0x40007c0000000000UL, 0x40007bc440000000UL, 0x0000000000000064UL, 0x44007c0000800161UL,
  0x4400042400000002UL, 0x0000000000000064UL, 0x4000000044007c00UL, 0x0000006444007bc4UL,
  0x0080018100000000UL, 0x0000000248007c00UL, 0x0000006448000424UL, 0x48007c0000000000UL,
  0x48007bc440000000UL, 0x0000000000000064UL, 0x5c007c00008001a1UL, 0x5c00042408000002UL,
  0x0000000000000064UL, 0x480000005c007c00UL, 0x000000645c007bc4UL, 0x0080024100000000UL,
  0x0800000268007c00UL, 0x0000006468000424UL, 0x68007c0000000000UL, 0x68007bc448000000UL,
  0x0000000000000064UL, 0x14007c00008002a1UL, 0x1400042400000002UL, 0x0000000000000064UL,
  0x4000000014007c00UL, 0x0000006414007bc4UL, 0x0080000100000000UL, 0x0000000220007c00UL,
  0x0000006420000424UL, 0x20007c0000000000UL, 0x20007bc440000000UL, 0x0000000000000064UL,
  0x24007c0000800061UL, 0x2400042400000002UL, 0x0000000000000064UL, 0x4000000024007c00UL,
  0x0000006424007bc4UL, 0x0080008100000000UL, 0x0000000230007c00UL, 0x0000006430000424UL,
  0x30007c0000000000UL, 0x30007bc440000000UL, 0x0000000000000064UL, 0x34007c00008000e1UL,
  0x3400042400000002UL, 0x0000000000000064UL, 0x4000000034007c00UL, 0x0000006434007bc4UL,
  0x0080010100000000UL, 0x00802141000001ddUL, 0x10d000343c007c00UL, 0x012001013c0200e3UL,
  0x10e3420200001100UL, 0x0fff000000801000UL, 0x00000001007f0000UL, 0x000000003c0a7c00UL,
  0x000000003c0d7c00UL, 0x6000004200802261UL, 0x1500006008000000UL, 0x000a808060027c00UL,
  0x0000601b60070043UL, 0x600c004300000920UL, 0x2042204200000000UL, 0x2c007c00008020c1UL,
  0x2c02004308880304UL, 0x0002aaab34180000UL, 0x000000002c0500c3UL, 0x0000000100000000UL,
  0x0000002400080000UL, 0x2c0c004200100000UL, 0x0000000700000006UL, 0x000000012c0d0043UL,
  0x2c1100433420003fUL, 0x0000000000000000UL, 0x1c007c0000802041UL, 0x1c02004308880184UL,
  0x0000000b00018d20UL, 0x000000001c0500c3UL, 0x0000000000000000UL, 0x0000002400000000UL,
  0x1c0c004200100000UL, 0x0000000700000006UL, 0x000000011c0d0043UL, 0x1c11004300018d87UL,
  0x0000000800000000UL, 0x14007c0000802001UL, 0x140200430008010cUL, 0x00004000342e0000UL,
  0x00000000140500c3UL, 0x0000000000004000UL, 0x0000002400000000UL, 0x140c004200100000UL,
  0x0000000700000006UL, 0x00000001140d0043UL, 0x14110043342e403fUL, 0x0000000000000000UL,
  0x0000002710027c00UL, 0x0000000d100c0043UL, 0x10207c0000000005UL, 0x10007c0000000015UL,
  0x1400200100000001UL, 0x10d000353c007c00UL, 0x1c00200160002001UL, 0x14007fe42c002001UL,
  0x0000000000000064UL, 0x0000000210007c00UL, 0x0000006410000424UL, 0x10007c0000000000UL,
  0x10007bc440000000UL, 0x0000000000000064UL, 0x0000000010027c00UL, 0x00000000100c0043UL,
  0x10207c0000000000UL, 0x14007c0000000000UL, 0x1400042400000002UL, 0x0000000000000064UL,
  0x4000000014007c00UL, 0x0000006414007bc4UL, 0x0080000100000000UL, 0x000000023c007c00UL,
  0x000000643c000424UL, 0x3c007c0000000000UL, 0x3c007bc440000000UL, 0x0000000000000064UL,
  0x60007c0000800141UL, 0x6000042408000002UL, 0x0000000000000064UL, 0x4800000060007c00UL,
  0x0000006460007bc4UL, 0x0080026100000000UL, 0x000000021c007c00UL, 0x000000641c000424UL,
  0x1c007c0000000000UL, 0x1c007bc440000000UL, 0x0000000000000064UL, 0x2c007c0000800041UL,
  0x2c00042400000002UL, 0x0000000000000064UL, 0x400000002c007c00UL, 0x000000642c007bc4UL,
  0x008000c100000000UL, 0x0000000c000001fdUL
};

ECBLOB_RUNTIME_SECTION
// _ec_blob_network_1 blob, aligned to the cache line size (equal to 64 bytes)
__attribute__((aligned(64)))
static uint64_t _ec_blob_network_1_ptr[2992];

#define _ec_blob_network_1_address _ec_blob_network_1_ptr

#define _ec_blob_network_1_reloc_table_ptr ((const ECFileEntry *)((const uint8_t *)_ec_blob_network_1 + 24))

#define _ec_blob_network_1_xSPI2_RELOC_IDX 0    // index of xSPI2 relocation of _ec_blob_network_1 blob
#define _ec_blob_network_1_xSPI2_BASE_SYMBOL ((unsigned char *)_mem_pool_xSPI2_network)    // base address of xSPI2 relocation of _ec_blob_network_1 blob

// this macro returns true if _ec_blob_network_1 blob is encrypted and must be decrypted on the fly, false otherwise
#define LL_ATON_EC_MustDecryptBlob_network__ec_blob_network_1 false

// this function MUST be called ONLY ONCE once for initializing the network
bool LL_ATON_EC_Network_Init_network(void)
{
  LL_ATON_Cache_NPU_Clean_Invalidate_Range((uintptr_t)_ec_blob_network_1_ptr, 23936);

  unsigned int size;
  size = 5984;

  if (!ec_copy_blob((ECInstr *)_ec_blob_network_1_ptr, (const uint8_t *)_ec_blob_network_1, &size))
  {
    // TODO maybe generate/print error because it was not possible to copy the blob
    return false;
  }

  ECAddr base;
  base = 0;

  if (!ec_reloc((ECInstr *)_ec_blob_network_1_ptr, _ec_blob_network_1_reloc_table_ptr, _ec_blob_network_1_xSPI2_RELOC_IDX, (ECAddr)(uintptr_t)_ec_blob_network_1_xSPI2_BASE_SYMBOL, &base))
  {
    // TODO maybe generate/print error because it was not possible to relocate the blob
    return false;
  }

  LL_ATON_Cache_MCU_Clean_Range((uintptr_t)_ec_blob_network_1_ptr, 23936);

  return true;
}

// this function should be called before each inference
bool LL_ATON_EC_Inference_Init_network(void)
{
  return true;
}

#ifdef __cplusplus
}
#endif
