#include "ll_aton.h"

/* global pool 8 is 101697 bytes */
/* index=8 file postfix=xSPI2 name=octoFlash offset=0x71000000  relative_mode size=117440512 READ_ONLY THROUGHPUT=MID LATENCY=HIGH byte width=1 freq ratio=6 burst max length=MAXINT burst penalty=0 pipelined=ON cacheable=ON read_power=110 write_power=400 use4initializers=YES score=50  */
LL_ATON_ALIGNED(64) const uint64_t _mem_pool_xSPI2_network[12713] = {

0x21F7F4000313F7F4ULL,0x0BFA23F4EB2200FBULL,0x1C0324F21F38F707ULL,0x1C08EF0006F1EF06ULL,0xFC0BF8F0FCF3E9F6ULL,0x10F0FFEF2226FBF2ULL,0x200A56E30AC6EEF5ULL,0x2EF40FF400EDF7F1ULL,
0x2500D4FD0E2501F2ULL,0x03F0E4E6031CEB04ULL,0x0B061EEFF132EF08ULL,0x13033BFB16280104ULL,0x10FEF6EDF3F8F2F3ULL,0x0403F0F6F501F2F3ULL,0xF9F9E0F01C35EA07ULL,0x170554FCF3DBEB00ULL,
0x15F02DEE1A1EF6FCULL,0x1EF7E101162CF2FCULL,0x15F3EEEE183400F6ULL,0xEBF521F13225ECF6ULL,0xED060BF42742FAF7ULL,0x1A05F1F00112FBF7ULL,0x070507F10D17F30AULL,0x04EDEDFE093BEF04ULL,
0x33F355F9FDD4080AULL,0x31F709F3150608FDULL,0x2607F0EDFE2803FFULL,0x0B00C7E612E5E7FEULL,0xF00BEFF9F908DDF5ULL,0xE5F3D2FB301BDBF9ULL,0x22014BE4EDD6E8FBULL,0xEE03F5F5F1F5E600ULL,
0xF9F9CAE60C04EB05ULL,0x22092C02F7E4EDF5ULL,0x13FDCA0106EFE807ULL,0x1BEA91F70212EB04ULL,0x02FC05FDFF2503FAULL,0xFE0445FE1937ED07ULL,0xF5FE35F00D51EDECULL,0x1EFA1704FC04F704ULL,
0xFC0925FFF914F2FBULL,0xF302F8020E58FF02ULL,0x31F36CF7E7CB03FDULL,0x2BF91801140FF7F7ULL,0x35F6EB0205400BF9ULL,0x2401E0D641C443ACULL,0x4175C5A08DA22DB2ULL,0xDFE71659A361AE81ULL,
0x4BBC5DE6FAECA0E5ULL,0x9FB1BABC8D950089ULL,0xCF6806A08F0D6CCFULL,0x56A3A4426809031DULL,0x223CC7EBF0EEEE4DULL,0xED186BECC42BA63BULL,0xF5F318FA2F560102ULL,0xF7F0E50A3102F401ULL,
0xFFF6BFF62118EFFBULL,0x0502DAF01660FE04ULL,0x01FCD30B16130106ULL,0x0C1005F9FC1C07F2ULL,0xFFFF98032369FCF4ULL,0x0201DAFF10671002ULL,0x0710070612590308ULL,0xF6F510EF1019FF01ULL,
0x00FF19F6FA1FFAFBULL,0xF3F61AF7243EF7FBULL,0x14F2F8F90CFDF6FEULL,0x16F104EEF9F4F609ULL,0x12F308FD0911F3FDULL,0x130831F30CD6FEF5ULL,0x3304DAF714E200F9ULL,0x19F5A7F40CFF0603ULL,
0xC4EF0006F701F131ULL,0x8104FD0DFFFFE41AULL,0x9CFB0212FB13F926ULL,0xE1DAFC07F609DD1BULL,0xB5EB0A01080ACE0FULL,0xBDE8000B0BE8ED1FULL,0xDBEC0BF902FCCC2CULL,0xD1FB0D09FEFCE623ULL,
0xC109F9FEF3F0F721ULL,0xADFA050D04F8DB26ULL,0x810105FCF40EEE07ULL,0x8EEDF506040B0812ULL,0xE4D3F304FFF7E91AULL,0x9FF2F90106F2F105ULL,0xBC0A090B08DA082FULL,0xDDF5F309F2FDD516ULL,
0xCEFCF40B0DE4FD18ULL,0xCD1108000CFD0D07ULL,0xB9E90002F9F7F631ULL,0x8DF00204FE04041AULL,0x8105080601FB131BULL,0xCCF9F602FFFBFF27ULL,0xC30305FFF2FAF11BULL,0xBFFF080207F61114ULL,
0xBFFD0808F9F9EC37ULL,0xC7F9F2F8F8EBE129ULL,0xC711FAFB0405F51BULL,0xA3EE021AF7EFE825ULL,0x81F10004F405CA20ULL,0x88E204160BF5FA19ULL,0xD9E5F7100B04DC06ULL,0xC5EC09F5F1FAC2FBULL,
0xAEDB0BFB05ECE90CULL,0xC5ECF50707EBDF19ULL,0xD2F2000B0FF4D218ULL,0xD0EB00FB09EAEF2CULL,0xA1EA0CFD0614DF31ULL,0x91FBF806FB0AF013ULL,0x81EE0AFFF6FC0516ULL,0xC2F7040D04FEF618ULL,
0xA0DAF507FE04E016ULL,0x990B060AF9EC0C13ULL,0xB5EBF6FF07FCB52CULL,0xC704FBFA00FBEB30ULL,0xAD11F806FEF8FD0FULL,0xBDEB256D4C3C52E4ULL,0x34DC156E2BB543B6ULL,0xF14F0333A744C44AULL,
0x6ACCAD5F3B5A88FCULL,0xB447B6306F2612FCULL,0x364D5A1388623B1AULL,0x98913B9558AE1D57ULL,0xC3FF4017139352BDULL,0x08E2DCAA0B8B9FD6ULL,0x840EFFF6F1FC4202ULL,0x8CFDF1F00CF12001ULL,
0xA40AFBDB020C0F16ULL,0x81110CCE00ED380BULL,0xAB010AD8F0032108ULL,0xAF0D05F5FC120005ULL,0x9607FBDBF800560DULL,0xB707F0F110093CF7ULL,0xD0FBF7230C061E1EULL,0xA0FD020F0AFEFB0EULL,
0x8103F80401FEDB15ULL,0x96EDF90D03FA0306ULL,0xCFF70A0D0CFADC13ULL,0xB8030904F9F4D314ULL,0xCEE90807FEE9F40DULL,0xE309F60202F0E913ULL,0xD3F10A0D05F7F726ULL,0xC7FEFF07F3F0F312ULL,
0x080EFEFD11D0FD03ULL,0x0904FFF51018F7FCULL,0x0802EEF90E030609ULL,0x0B0B05060BB8FA04ULL,0x0003F0010F04F7F3ULL,0x050CEFFA150EFC00ULL,0x130DF4F314C70310ULL,0x10F70AEF070508DDULL,
0x0607EFF50516FCE9ULL,0x0004FAF50AE9F8F5ULL,0x0D0AF1060D1FF908ULL,0x100E05EF0401F41AULL,0x03F9FBFE10C4F1FFULL,0x10FCFBF8130706F3ULL,0x0D04E7EA060A02FAULL,0x10070300F9BCF0F2ULL,
0xFF08F6E61007F6F8ULL,0x0008EFF10B120DEDULL,0x180F08F816E3F6ECULL,0x05060BF91B060CFCULL,0x15FA05EB1D03FBFCULL,0x0C0FF8F917DCF501ULL,0x0D0BEFF41A15F8ECULL,0x070D02F6131E0DF2ULL,
0x0CF705F411C7FDFDULL,0x010AEFEF090BFDF6ULL,0xF9F601FD1703F8FAULL,0x0810F2FA08EB000FULL,0x13F704DC04F10F00ULL,0x0213FEDE18F1F9DFULL,0x110310EF0AE3FCDBULL,0x0AF6FCFE07DEF8F6ULL,
0x080700FA00FD00F7ULL,0x07FE01F808E901D9ULL,0xF9F30402F9E1FEE6ULL,0xF6FAE7EA0B15F2EBULL,0xFBF9FC0616D9F7EEULL,0x000C08F4151303EDULL,0x06F6FE040110EB12ULL,0x170DF3EE22C605FDULL,
0x1710FE010F1205E1ULL,0x0D0DEDED142608F4ULL,0x0D06070400BBF308ULL,0xFAF4FDF11507F9F2ULL,0x0B07F3FA06140201ULL,0x7847B761E1E99060ULL,0xE917A8C099E18740ULL,0x2B0FF94A344B109CULL,
0x520DD80F94F90D0DULL,0xEFD8ED05C725E3B8ULL,0xBAE7AA4E75CE6105ULL,0xACCD2C8D8B63B19BULL,0xD1AD98995966AEDCULL,0x28BC056F0A939D53ULL,0x59FD05FD313EFCDBULL,0x38F8F0EB3D37F8C0ULL,
0x2A0DF1FD633801EDULL,0x3B02FBF01B52FDD5ULL,0x0CEEFCFE22220BEAULL,0x06F90AF44A36051FULL,0x2500F1031D2F1215ULL,0x13F30AF71B160B28ULL,0xF509F9125A22024AULL,0x0D0E0BFA07F500F3ULL,
0x0707FF020FF0F9F8ULL,0x0108F50607040A03ULL,0xFC0B09F8FDDA01F4ULL,0x030A08031CCCFAF7ULL,0xF8FAFCEE0701F8F2ULL,0x0B0EF4F306D9FCF1ULL,0x0F0CFE0513C707FFULL,0x00F9F6F8FDFC0303ULL,
0x0A00F8F8FE04FF15ULL,0x0304050600FF0528ULL,0x14EB0F0E000E080FULL,0xFCFC06FDFC0A0B02ULL,0x07EE06000210FCE6ULL,0x09E8FA0DFC17FC0FULL,0xFDFB02FCFB0F050CULL,0x04F002FF0113FAD8ULL,
0x0703050EFB060237ULL,0x02FCF60104FBF323ULL,0x01F001F6FCFBF126ULL,0x0FFD0D0E0D02021AULL,0x08FC05F90102F3E7ULL,0x0AF302FD0F0BFEFDULL,0x09FBFD101005000DULL,0x0800FB0B0D0CF22FULL,
0x180709081513FDECULL,0x0D0501041509EB2BULL,0x12F10C0700F9ED15ULL,0x17FAF8050D18FA2EULL,0x14F00FF60706F021ULL,0x16FA040C0CFA0713ULL,0x0EFB0A08FD19EEEEULL,0x0EF90E070A03023CULL,
0x0EFA0CFA01060D16ULL,0x01FEF508021605E9ULL,0xFE0A0E13FBFD0224ULL,0x03F4F90C0604FBF2ULL,0x04DB0B0D070FF8E7ULL,0x07E70AF6070CFDF8ULL,0x17FFF4051813FD21ULL,0x0AFAFDFA1508F6D3ULL,
0x19E001030FFCF815ULL,0x17EAF1FB150BFA2EULL,0x0CF809F3FAFAEFADULL,0x0CF10DF00A02F81CULL,0x10F4FEEFFF130125ULL,0x0B0006050D09F83DULL,0x2208FF070309F41BULL,0x0F070AF21115EFFFULL,
0x12FEFE0601180411ULL,0x1C0AF6FC091A0A3CULL,0x01F80AFC0E03F708ULL,0x1DFE0118F80F06CCULL,0x1A0A0410F911043BULL,0x5658F4BDCD8DDA9AULL,0x0A4D53A3FAC29AF1ULL,0xA9BAB5E2ABC6E02EULL,
0xA2CC278AF240E763ULL,0xCCE0FC5D11AE0424ULL,0x23A397C1FBF2ED18ULL,0x03DFD1C6D3E42853ULL,0x169C1D0524B54838ULL,0x72271416E137C729ULL,0x53F8140E140301F9ULL,0x2FEC0911050C05EDULL,
0x10F90705060BECF5ULL,0x42F708040AF3EB08ULL,0x25120B0D0F00F128ULL,0xEC0F09F90DEF0432ULL,0x2F08FBFFE8FCEC45ULL,0x1604FCF6E303F14CULL,0xE3FDFEFCE408F740ULL,0x07FD0B0D09060625ULL,
0x12FB0EFD0B0E0621ULL,0x12F900FB0707FF23ULL,0x0AFAF7041112F8E6ULL,0xFB06FE11000F01D9ULL,0x09F9050801FEFE17ULL,0xFE050A0C03040908ULL,0xFEF1FE0A07F9FEB6ULL,0x08F50B1005FAFD14ULL,
0xE61B8102D3BA2200ULL,0xD8FB8907D6C3021EULL,0xEB1EB1FEC3A80300ULL,0xF6FACC03E4B71D11ULL,0xF904AE0BE0B20C15ULL,0xE80A89FAF6A209FAULL,0xDAFE2FFBEEBD1D15ULL,0xF8180D1AFFAF0007ULL,
0xE3F7B00CF68C0915ULL,0xEB0B880EAF81110BULL,0xEBFA9015ADCB0FFCULL,0xEDFBF013C2C311FDULL,0xF902BBF9D38EFE11ULL,0xF110890EF2BFFCFBULL,0xF4F6BF0DF0C20413ULL,0xF4025FF503AE100EULL,
0xEBF90C0A00BE120BULL,0xF3F190F90CAE1412ULL,0xD8F76405DACAF5F4ULL,0xDD0B6F06CAEC0805ULL,0xC8081CEED0EF0A08ULL,0xE6F7F3F6E2EEF70CULL,0xE7F9F2F0FEE7FAF0ULL,0xCDFC11F9E2F0080CULL,
0xFB01A5FA0EE3090AULL,0xDDFACF0000D7060DULL,0xEB0E450A08DE0807ULL,0xCD3D29B4AE2AC3E7ULL,0xBF1B3EC6B1AFADB0ULL,0xADCF045F9D1CEE93ULL,0xA493CE0DD453A69BULL,0x0CF6C8F0ECBEF634ULL,
0xC5A358E4D0F29BB2ULL,0xFCDDA8B43C1634DDULL,0xCF0017DBBB49AC81ULL,0xBC1EF42FA436F7EEULL,0x0807F4F3F219F508ULL,0xF40526F21124F1FFULL,0x100733F1054DFB06ULL,0x2DFFFDFEF8FDEEF1ULL,
0xF9050E00FB19EBF8ULL,0x04F4E3FD2254FEFFULL,0x26F54BEE05EAFE03ULL,0x190219FB1306FFF4ULL,0x27FEEBF30F31F803ULL,0xE00CD9C54B250928ULL,0xD3D2CE30D6081B83ULL,0xCB4A67962267C732ULL,
0xCEE8DF1EBE9511E2ULL,0xD2A925E5F7E48127ULL,0x080CED9DAFC0B809ULL,0x5EE141944EBE1FE8ULL,0xB99A208D52ED2436ULL,0xCCF94509539A8DABULL,0xFF0B02F8081BF600ULL,0x051028FC0320F306ULL,
0xF2FE32FA262FF3FFULL,0x200F06EA07F8FDF9ULL,0xFBF303FE0EEFEF06ULL,0xEEF3EAEE1E33FC04ULL,0x0F064CED00CAFAFBULL,0x16FF03F91AE6F3F8ULL,0x28FB050A0FFCFBF3ULL,0xD708180DEBC10CF9ULL,
0xDCFA0E00D5E7FA0AULL,0xC41528EFD1F7F00BULL,0xDAF69403EAECEFEDULL,0xEA04ECF2FBCE0203ULL,0xD001D7F9FDCDF707ULL,0xCA0EB9EC08DB0DF2ULL,0xD902FFF9FEE40E12ULL,0xD10CC2FA00BCFD0FULL,
0x0F1BF5E6F617E0E8ULL,0x3510F9F7FF13EFD0ULL,0x521E0AF9F615E3CEULL,0x081509E80719E4CCULL,0x28140806EC13E6EDULL,0x1D02ECFC070CFBDBULL,0x041D110CFA08CBCEULL,0xE60DF7F00820F3DAULL,
0x0F1612F0061604CCULL,0x2EF7F9E70B06BBDAULL,0x25F910EE01F3E2EAULL,0x120502061204D6E2ULL,0x26FA09EE04FAB3E3ULL,0x25F6F701EFFEF5E3ULL,0x440E0EF8040FE2D1ULL,0x02ECFCFE10F9D1DDULL,
0xFF0AFAF90BF5FFE5ULL,0x0F1704E505F105DDULL,0x4FF30301F6FBE9D2ULL,0x7FEC0008F900FADDULL,0x7408F90FF400FFDBULL,0x2CEE08FA0306F0EAULL,0x5207020EF70005F7ULL,0x53ECF105FC03FEF0ULL,
0x3FF3FDFAFFF406F7ULL,0x52EDFCFFF70B0711ULL,0x4AEAFA0800FF06EFULL,0x12F0D1CACE0D3D49ULL,0x454250592148BC2FULL,0x17F643B12DF4B641ULL,0xE50105B328A05F44ULL,0xBCC3023DA437AFBCULL,
0xA60ADBB8E85CABCCULL,0x31A4CC3129B220B4ULL,0x3516DBC1F7FAA93DULL,0xB60E20F2E2B8D135ULL,0xA9F60316FF05E220ULL,0x81E607070207EE14ULL,0x8BEBFB020DFAFF24ULL,0xE0E9F2100602FA2CULL,
0xADECFA12F6F2F61BULL,0xC6FCF5FC0EE8192EULL,0xBDF8FD03F2F2E022ULL,0xBE0105F80203F526ULL,0xD017F40B0DF1FC19ULL,0xB15F5A88AAEFD2B3ULL,0xCD5658B23ADA2AF9ULL,0x1A4BA4A168A74805ULL,
0xF636B71339A8B7AEULL,0xB8F441E7D509DF2FULL,0xF25D6720583D469DULL,0x13CBA3DC994FE960ULL,0xB402024AF3DFA90CULL,0x42DBD6FCE519D7F1ULL,0xA2E802010408E42EULL,0x81F20A03F608D413ULL,
0x97E5F606F40BF80FULL,0xD2D1FE09F709E40DULL,0xBBE4F7F7F20BD014ULL,0xB0FEFEFFF5F2FA13ULL,0xD8E8FBF60C00D51FULL,0xCAF5F8FD08EEE42DULL,0xBF12F30D0CF4F00AULL,0xEAE612F5EEF108BDULL,
0x15EDFB0F1514E2C5ULL,0x26FAFAFEF5F6F181ULL,0xF2FB0214FF0BECDFULL,0xFDE7F500F2E908DEULL,0x17E50204F7F0F9BEULL,0xF6E8F71CEE0CF9D3ULL,0x080207F1EDF70CDBULL,0x060BFBF7FCFBE5CEULL,
0xE30A0E0CF0D80DE1ULL,0xE00DFFF9FBEAF5EEULL,0x04EFFE0FEFC5F5DBULL,0xEB06180605CF02F5ULL,0xF806FD1CF2CDF7E5ULL,0x05FFFF0EF0C913E0ULL,0xEA161B0B05C9F9ECULL,0xEAF211FAFCD003F3ULL,
0x050BFCFBD3E610D8ULL,0xDDFE0E07EAF9FDEEULL,0xF206F316E9E30DEFULL,0xF500FC17DDD7F3D3ULL,0xFA0F0D0C06F90EF3ULL,0xFCFC10F70AF00BFAULL,0x0AFDFC10E9D7F9F0ULL,0xF3F417F705DF0DE6ULL,
0xFA14FF0C05F300FEULL,0xFCFEF807E1E907DDULL,0xFA0BF404FEFC02F7ULL,0x0210FCF6FBEEF602ULL,0xF6FFFB00FBE00BF7ULL,0xF5FF01070AE5FEF3ULL,0x110DFFED07F4FCF5ULL,0xF6FC01F3FAE50CF6ULL,
0xF60FFFFA12E8F90DULL,0xFD0DFFFD0CE80301ULL,0x0508FCEEFEF0F304ULL,0x5239AF30DE320317ULL,0x9C35F53231EAA3DBULL,0xB5DED992B814C952ULL,0xD690C3AF97D1EDDEULL,0x90F9C53ADA501151ULL,
0xA10F11BBAAE1BB45ULL,0x2F933213F9F50A36ULL,0x2F89F4E6E6A52043ULL,0x9AFDFD07D042071EULL,0x09F609FA1BF4F5F2ULL,0xFE0CFFFA0F14FBFBULL,0x0A0B00F9070F080FULL,0x0C09F4F115E2F507ULL,
0xFC0BFDFC0C120503ULL,0x030BFDED0B0E03F4ULL,0xFC0F02FA04DC04F7ULL,0xFE07F6F61B0800F2ULL,0x1105F7F4121DF7F7ULL,0x1DB715FE284EB595ULL,0xC734E687CF0C28F4ULL,0x86BFB44FCDFC2D9AULL,
0xC03627B64898898FULL,0xAC812F4A996098E3ULL,0x53EFDCCF1CB61A54ULL,0xB7A75056D630FA54ULL,0x1612F011C7F3A11BULL,0x4343B2EC3401964BULL,0xFA0E11040AD5FAF9ULL,0xFBFD000619FFF9EEULL,
0x0D02F4FE090AFF11ULL,0x0F0D100211C0F61DULL,0xFF0AFBF824E307D7ULL,0x140EFEE71723FDF5ULL,0x0A01FCF708C6FE0EULL,0x0FFDFDF913D803E2ULL,0x02F6FCFC170A0AECULL,0x1302EFEB16E015E9ULL,
0xF0F50806FBF601EFULL,0xFB1D070DFEF7FDF9ULL,0xFFFDF605100CF9F6ULL,0x151DF9EE05F7EB08ULL,0x0FFB10F612FDEEE7ULL,0x110CFDE4F9E20AFCULL,0x0E0F10EBF6F5F4F4ULL,0x190411F212D80DFDULL,
0xF70F1603EAED1DE1ULL,0xEE0F0402FEF9FAC7ULL,0xEC1AEEFBECF510D3ULL,0xDE18F603FBEB03C3ULL,0xFB1B04F9070F08C0ULL,0xFE0AF9F705FD11B4ULL,0x0203FCF2FEED15B6ULL,0xE809F9F4EF040FA9ULL,
0xF9FCFBF9FB04FAB1ULL,0xFF13F3ED0E0E04E7ULL,0xED02040CFDF00DE1ULL,0x0316FCF20CFF09C7ULL,0xF60808F90FF5FED9ULL,0x080BF612F905FBCDULL,0x0D0309FEFD0BF6BAULL,0xEB03031503F4FEC0ULL,
0x06FEFC16EB130ABAULL,0xF7F7F31A06FD06DFULL,0xFC0B0401FF13F4F1ULL,0x0D010BF807FA06F1ULL,0xFBF210FA1110F7F9ULL,0x0CFA12090FFB0BD0ULL,0xF706F90104FDF1EFULL,0x1102F907FC0C0401ULL,
0x09F10307F603F3DDULL,0x0CFD030712FA08C1ULL,0x08ED0D04FDF902EEULL,0x9F0F23D6AD49F6F2ULL,0x482E2B949E182A9CULL,0xA8CDA302DEE2D304ULL,0xA98BA88BBC33EBB1ULL,0x300DBDE303E8F2D0ULL,
0xCF16A7EE2329DEBAULL,0x2344FDA7DE8C1C0EULL,0xA3089FF92D361541ULL,0x2E30A7EEFC4CA8C4ULL,0x10F601F80604FE32ULL,0x12050D050C11F425ULL,0x03F1FBF914FEFD1CULL,0x08FF0501FB01EDFEULL,
0x11FC080E0D14FCFCULL,0x1103FDF7FB0D0617ULL,0x16ED08FD120EFE0DULL,0x14FC09070DFAFFDDULL,0x0CF205050A10ED4DULL,0xF6C552C4CC8D2127ULL,0x27B9D85026B2C7A1ULL,0x2A98D217922F31F3ULL,
0x97AF11A1DFF5FEE0ULL,0x23B35715F7E8D447ULL,0xA2060CE9CBF600F6ULL,0x481588552FC299FAULL,0xBE56C8279045ED61ULL,0x033850ACCDE01C1AULL,0x100211F7FDFEFD2FULL,0x08F815020E09F620ULL,
0x10EF01F81508F720ULL,0xFC0AFCFD0C0DFFF4ULL,0x17F9F909081B08F2ULL,0x1EEFFDFF07110B06ULL,0x12F6FB09FDF8FE1BULL,0x07FB0E0006000BADULL,0x1401F7041400F328ULL,0xFB00F802F1F804F4ULL,
0xFF0C0207F0F30EE8ULL,0xF0010D15F80BFAF2ULL,0xFDFB1202FF18EDF3ULL,0x16F306130A060CD6ULL,0x08E918190F0008D5ULL,0xFDEDFF0FF41110C1ULL,0x0DE90C04FEFC06D1ULL,0x130BFCFB0B0EFFD3ULL,
0x0AE9F4093566150DULL,0x0EEB06F4451DECEFULL,0x0EEB32EF3D2BF4FFULL,0x0714D4180C57FAEEULL,0x1A14E7010B1F12F2ULL,0xF3F008FD18360F0FULL,0x0A12B5F6107210EFULL,0xFEF6CC1B145B11F6ULL,
0x07F02A11204EFF0AULL,0x1A02F504EB11030AULL,0x06071800D91F00F9ULL,0x05FB0E03ED38EFF0ULL,0x2EF9ED04120B09FAULL,0x0E06FAF9FFFAF707ULL,0xF4F6F9FA1326EDFDULL,0x1FFC3CF302E6000BULL,
0x31F422F10BDBF5F5ULL,0x290818060F19F3F4ULL,0x0509E802C4811307ULL,0xF310B812CDCE10FDULL,0xE911B8FACFE804FFULL,0x0109B30AF6A4F305ULL,0xF715AB03EBDE0510ULL,0x00F2EC0BDFE712FEULL,
0xFCF7E10808A306FEULL,0xE80A131309DB0806ULL,0xFFF09E11F1E0F7FCULL,0x00F627F9536309E6ULL,0xF4EA38F45F3E1100ULL,0xFE0C340B512BF8F5ULL,0x0CF902EB1A3EECF7ULL,0x16132E0B114BF010ULL,
0xF8133DFD273C0AFDULL,0x0303D8F318500605ULL,0x0013E5F70D3705FCULL,0x0BF82AF30661080AULL,0x26F1FBF3FA27FE0AULL,0x03013605DD1BF1F9ULL,0xF5F22DF9074EE5F9ULL,0x2CFAFEF710FFF1F6ULL,
0x18EF1EEA191EF0EEULL,0xF8F5F5EB1545FDFEULL,0x2E0C58F500D3ECF8ULL,0x39EE4BE91A0A03F5ULL,0x33EDCFF4FD300B08ULL,0x0C00CAF31316F50BULL,0xE6FAFDF9CB1BE204ULL,0xD609C404224704EEULL,
0xFF10F7E0F0F4FCFAULL,0xED08FCD9ECFBE7FEULL,0xFCFEE7EE0B1AFEEFULL,0x0C0C4BE3F5DEE604ULL,0x09F9BFE20FEF0306ULL,0xFEEB85000A05F4F0ULL,0xEB0220F21318FB07ULL,0xFB012E04121E0702ULL,
0xFAF42200EEF90204ULL,0x03F140FC264907EBULL,0x1F0B20F33729EB06ULL,0x1F00E1F6310309FDULL,0x0FF62E032347FDEAULL,0x36F7BFFB2F37FC0AULL,0x1A06D8EA26E8EEFAULL,0xE31B8B10A881F6F9ULL,
0xF4198A03C0C0FE1BULL,0xFE03D90195D910F8ULL,0xE006DE11DC8CF5F7ULL,0xE003CD06F9E1F809ULL,0xD8EFB7F1D3B01C05ULL,0xE5FD7CF0EA931109ULL,0xD1FCF213FDC80308ULL,0xF30B9910EFBC111DULL,
0xCAF814E7090F1F14ULL,0x96F70E0DFC0C2DFAULL,0x81FB0FF700200A18ULL,0x9D0C12DCF2193D00ULL,0x8703FAE711FB2119ULL,0x8C00FA1C100F0A12ULL,0x9E0107DCF5135D12ULL,0x9E0D1208EE133A23ULL,
0x83F6F82210101E10ULL,0xB3F0FA05F900EF1CULL,0x81FD0814FA0DD821ULL,0xA3EAF80BF30BE912ULL,0xE5FFF5FCFA05E726ULL,0xCD03050A0401E52CULL,0xBDED08010A02F41CULL,0xD10A0009F301DE19ULL,
0xC303F500FBFBF527ULL,0xC9FBFC15080FF737ULL,0x0303FC0C0FF5C1EBULL,0x1C1813FD03FADFECULL,0x1F13F9F80AF1F3E1ULL,0x3EF9060B0B01D6E1ULL,0x38F6EEF5F308DFD7ULL,0x6C15061000F819EEULL,
0x39F70C18110CA7E3ULL,0x500F06FFF4FBF4F3ULL,0x5B04FFFA03F702F5ULL,0xAB0AF7180D162D00ULL,0x95FD0C1102102DFDULL,0x9220EF14FB112E0EULL,0xA6FF04EEF8153419ULL,0xA50A081EF024240DULL,
0x810F030C01032D08ULL,0xB310F6E61004201DULL,0xB3FBF40B0C0C2520ULL,0xA90B0F270E0E1C22ULL,0x9CE6F50208FBE820ULL,0x81EF1005F917D428ULL,0x93EA070202FE040CULL,0xBBDC0717F50BDF46ULL,
0xA0E00BF9FE12EA35ULL,0xA4FD03FCF5F4FC32ULL,0xCDF103F909FBBF3EULL,0xCBF3F4FE1001F534ULL,0xBA0704F5F102FA2FULL,0xADF40B13FC09DC1FULL,0x8109F909F3F3BD0FULL,0x97F4FE0B00F505FEULL,
0xB4D308FB0FF3D90EULL,0xA1D50EFF0FF1BAF1ULL,0xB5F10F13F6F7E7F1ULL,0xCBE1F4100C02E421ULL,0xC205F0F408F0F2FAULL,0xD8080C00FDF5D807ULL,0x810FF10BFD071EE3ULL,0x9D0A060C040C18F3ULL,
0xCFEEF908F201EC29ULL,0xD00710FD0E0237F4ULL,0xE2070602FEEF28F7ULL,0x1FF607FAF9E8124DULL,0xBD0B05F002053308ULL,0xFD1806FF06F12E28ULL,0x19EC0AFE04DEEC50ULL,0xF3F50FE6F009B3EFULL,
0x110CFAE80BF1C3DFULL,0x270EEDECF5F2D7E7ULL,0xE20701001002C0EAULL,0x131CFD03F119E5E8ULL,0x030906EA11EAE2E9ULL,0x1B07F506F509BBD3ULL,0xFC0601EF0906F4D8ULL,0xF9F2F5E507E7EFDBULL,
0x390814011B39F511ULL,0x230CF5022120F216ULL,0x2AF705005443FF2AULL,0x3109FE111742071AULL,0x1E04EE0D2F24F629ULL,0x10F4ED005E44F140ULL,0x0603FE0B26270C43ULL,0x11F012052721092DULL,
0x051AF70C4D3BF440ULL,0xFD0FFAF70FDA00F7ULL,0xFB03FAFC13F609F3ULL,0xFF0900032A22000FULL,0xFFF7F7F814D708F6ULL,0xFEFB0AFB17E20AFDULL,0x040B03FC250F0A13ULL,0x040DF508FECFF3FAULL,
0x0DFB06FB16E0F7F9ULL,0x0C0A00EF2316FF02ULL,0x0907F2F7F50312F2ULL,0xFB16F60F040400FCULL,0xF9F20F04E908F3F2ULL,0x0E0BFE0DF3F3F201ULL,0x03F60F0A02F5EF00ULL,0xF8020A04F4F4060FULL,
0x0BF7FDFFF7E1F2F8ULL,0x11F6EFF6EDF1FC0CULL,0x15060E05F2030D04ULL,0x13FFF2E7091DF306ULL,0x13F20B091C17F213ULL,0x19F911F62623F319ULL,0x2A0203EA122C0226ULL,0x06030E09332BF80DULL,
0x01FA01074A3D0521ULL,0x02FEEF0C281CFA24ULL,0x1EFB0AF82C321016ULL,0x09FBF31039241116ULL,0x05030CF71EC2F802ULL,0x14FE0BEE1115FCE8ULL,0x07F2F5FC100BFC00ULL,0x0402F7FB1AB10206ULL,
0x050D09FF110DF3E2ULL,0x030D06F41B210BF5ULL,0xFA0609FA07ABF00EULL,0x0D09FCF6170AFAF2ULL,0x190AFEF2170F08E1ULL,0x1416F7EC19F41104ULL,0x121908E616F314FDULL,0x1202EEEE0CFB0401ULL,
0xF803FF040DDAFDD5ULL,0xFD02FF0106DA0EF2ULL,0xF80EFEE400110405ULL,0x1101F0E702EB04CFULL,0x0D130DEDFDE015F1ULL,0x0A0A00EE0C0202EEULL,0x030DEBF40427EFF3ULL,0x0CF509EA0B14FC00ULL,
0x08FD0BFE2BC100FAULL,0xFD10F3F3162A0100ULL,0xF8F70AFF06F6FC01ULL,0xF71401FD0EB4FBF2ULL,0x0306F4FD0728F4FDULL,0x0905F10304F50809ULL,0xF905F5EE26C4F5FDULL,0xD411F712E5E915DFULL,
0x07FC12FFDCFAF6DBULL,0x05EC15FED0F9EEE8ULL,0xEEF21AF903ED0FE1ULL,0xFFFCF00207EF15D4ULL,0x0F130E16E3FAF3D9ULL,0x1012F20CF4C104D6ULL,0xEF0FFE16F4ED0BD8ULL,0xF7EF05F2D30314E5ULL,
0x29F80E0D25030003ULL,0x0C13040C07FAFC01ULL,0x14F20915F9150F16ULL,0x3C0E05FB1411032FULL,0x15160E010CED0333ULL,0x2103F9F816F80F22ULL,0x0F0909F50514FE75ULL,0x18F30D090BF7004CULL,
0x17FD1305EF16EF4BULL,0x03F207F90008FB17ULL,0x0CF9FFF70502FE20ULL,0x18F111F40312F51BULL,0x1108060B020F05F4ULL,0xFEEF030B1407FEFCULL,0x07FB0E0A1016F52DULL,0x15F20800FBFDF211ULL,
0x0C03F9F8000608C8ULL,0x0BFB0B0608140B10ULL,0xED0F11F5F9FFFBECULL,0xF7FCF8F70AF304F8ULL,0xF308FA06091002D5ULL,0x01060B071300FBC2ULL,0xF013071204FC04B8ULL,0x0AF611F0FC05F9C6ULL,
0xEDEEF714FF0616E9ULL,0xF5EE1003FF0AFCBFULL,0x02040EF5FCFE10E2ULL,0x2CF0FF0BF8FEFC18ULL,0x21EAFE0A0F01F034ULL,0x0EFE14FC01F40518ULL,0x2D0D19071305FE1AULL,0x2B1416090313F23BULL,
0x0D031A0902070730ULL,0x11F2110D0A0BEF29ULL,0x27F91B0D1C1A0533ULL,0x050D1A0F0A13F03DULL,0x01FF08F40C05F621ULL,0x0CF10705FE08FB31ULL,0x0DE5010DFE000620ULL,0xFDF10E0E0FFAF810ULL,
0x04FE080C06180DDCULL,0x08F7F407061BF22FULL,0x11F9F80F000D0D13ULL,0x2200F215110305E8ULL,0x0BF8FC0E020B0220ULL,0xFE0213F211FCF319ULL,0x00F604080801091AULL,0x09E809F512F7F01DULL,
0x07F113070A19F8EAULL,0x14DA0706180104DBULL,0x0DF4FB130BFF0E16ULL,0x09F30FF81501F309ULL,0x14EC15FB17150CB3ULL,0xFDF4000C0B0AF034ULL,0x18F6FDF113FEF4EDULL,0x0309F10A0204EDEEULL,
0x1304110DFE16EDECULL,0x06F1FF0909F6EF04ULL,0x06FCEFF60DF8EF10ULL,0x11021613040B07F4ULL,0x06FAFC0DF610F7F0ULL,0x04F8080F06F6EFE6ULL,0x01070103FD0CFBC5ULL,0xDFFBFDEFF0F610DDULL,
0x0311F90BF00BF6E5ULL,0xFC0608F8FDFF1AD1ULL,0xEB0C1C02E5FDFEC6ULL,0xEF0009F4E41007BFULL,0xDEF60F0F03FEF8CBULL,0x06FAF4F7F4FC0C9FULL,0xEAF2FE16F4FCFCB6ULL,0xED0EF507FBF0FCA2ULL,
0xFFF711EA324DFEFEULL,0x13081EF12F3AFC07ULL,0xFF0538F83A2705F7ULL,0x1B0EF8062C500E09ULL,0x060301052D47EF0BULL,0x23FF300A11490AFBULL,0xFF0AA7F82572040DULL,0x1907F310265412EEULL,
0x08F23409F7600BF3ULL,0xDE1D9F03D1A10318ULL,0xDD10ADFCC1CB1C07ULL,0xE806C125C6CEFEFBULL,0xD50FDB00E7B01406ULL,0xD3F1A201D6A51FF5ULL,0xD9129206DAB3FB1EULL,0xF81C3015F7892216ULL,
0xE718FD02ECB8FB10ULL,0xC9F581140C9806FAULL,0xEBF92B2F3411C6F4ULL,0x0D062E2F1513EE0AULL,0x2BF7161B03280E13ULL,0xCAEEF9FC0309BDEFULL,0xE6F00723F314F2FDULL,0x24032424FF3510FBULL,
0xD602FB19FD13BF03ULL,0xD304181BE02DF0FCULL,0x051B4D0C0E410107ULL,0x26F805EE1A1AE805ULL,0xEFFA29FC0C34EDEBULL,0xEB0943FD2363F2FDULL,0x3E0CFE03F9DBF8EBULL,0x1502F8F5E118EDF1ULL,
0xEC00E4FE0351E50BULL,0x20084DFC0BBCE2F8ULL,0x1D021BF50014F5F8ULL,0x3906B4E207390902ULL,0x060314EB0A38FC0CULL,0xFBF94201164F0603ULL,0x23094407083C010BULL,0x37F622F40602FA04ULL,
0x01F20EF5F21608FEULL,0xEBF9EEECF7410905ULL,0x140957020CCE0606ULL,0x11EF19F30CE2FDFCULL,0x16F5FFF2FB18FCFEULL,0xCF39F0DDDFC820F4ULL,0x1DCEE799FE17D9F3ULL,0xD8B62D118C01E6AEULL,
0xD8B5DEEEC3D9BF0BULL,0xAAF7D1F8FF4548C7ULL,0xE6271EFD81F3F4FEULL,0xCDFB17AAEA4AC0EAULL,0x14D001C3D11DFF24ULL,0x91D806B030E111DEULL,0x1FF20A05D40C01F7ULL,0xFE0033F9EB0BEC08ULL,
0x0A0334F4E8410403ULL,0x1406F0FDEE07F907ULL,0x19EF00F80024F001ULL,0x0208E6FF0E3403FFULL,0x210124F90AD6EE0AULL,0x22082702010901FCULL,0x2302ED020031EF03ULL,0xA111142FD6FFB748ULL,
0xAF070F11F5E02BE2ULL,0xBD1D632D07AEDE1FULL,0x031EFF0049972281ULL,0x44CFEBF29841D540ULL,0xF0FAC595A7135325ULL,0x4AA01C54A2B8C8A0ULL,0xED2D325CA835E0CDULL,0x5891A5F3FB11D6C2ULL,
0xAA09FD11070B3E1CULL,0x910012000D15331CULL,0x8104F11AEF22151FULL,0xA709FDF1F109390EULL,0x9CFAEF060B202120ULL,0x981DF527FC0E0410ULL,0x9716FAF012F9510DULL,0x9521F30412031E17ULL,
0xA716F227F3070B0DULL,0xFCF103FC16FEDCCCULL,0xF510F2E7F000D3C3ULL,0x4508F905EA00D4CDULL,0x0F1A0EEFF307D1E0ULL,0x0911F4061123EACAULL,0x18110FFB171804C3ULL,0x0104010DF61AB6DBULL,
0x070EF5FCF113E5DAULL,0xFD04F5D6EB03D9E4ULL,0xFFD9F60B072AF613ULL,0x6008FA25F8010B14ULL,0x5C1DFC0105FB1F5BULL,0x1CDD0CFFFA160FEAULL,0x7F16F32BF3F12113ULL,0x6C25022BF6301C2DULL,
0x2AD5FA07F72808F3ULL,0x5E05FE40FE4512E0ULL,0x5907FF27FA252A18ULL,0xBED60E050112E24CULL,0x81FD100BF404DD1AULL,0x9400F91A020DECFEULL,0xBFE611FCF2FFD929ULL,0xA6C6021003F4C023ULL,
0xA50F07F705DAEF1FULL,0xACF7FF15EEFFDD2DULL,0xCAF4FBF1F3F4EB2CULL,0xC501F9F3F60AE022ULL,0xB0F90AFFF802E52DULL,0x86060C02030AEDFFULL,0x81F2FF17F304010CULL,0xCDE50B0AF90BFC14ULL,
0xABFB040B0512E717ULL,0xA3F401FD01E11A13ULL,0xB8F500F7070FCF30ULL,0xB408FFFDFA08E320ULL,0xB30B040B0DEEF313ULL,0xCFCF30D4C4A4D3AAULL,0xD82B0D981DFA26F2ULL,0x2EFEE3F3C335F41FULL,
0xA6123DDAFBBFD31CULL,0xD7130EC4372D053CULL,0x10BC25EAC627BC02ULL,0xA03832FDCB0F52DEULL,0xE308FF07E1284BA2ULL,0x3EF83ACC032F1822ULL,0xA2FCFDFBF61BE222ULL,0x81FAFFFA0909FB1CULL,
0x82FFF509FD10F700ULL,0xC1EE0E150A11DC26ULL,0xA4FE09FBFE090014ULL,0xB40D04FDF7F60608ULL,0xC6F7F2030006E03EULL,0xBDEF080CFE05F22FULL,0xC2FDF80F03ED1121ULL,0xA0439F4426F32D48ULL,
0xA7DAE12BE99F1F45ULL,0x5DE04F07ED5AA32CULL,0xCC38061459D767B6ULL,0x5048CDC4FCAC6768ULL,0x43E61E52A64C4096ULL,0xF00AB516B51D90B2ULL,0xCCF620AEAF1C37BDULL,0x03FA4AAC0A4525E2ULL,
0x341105F11A44FE1BULL,0x2EF8FA05232EEF08ULL,0x28F0EAEA4A51F23BULL,0x25010D090E24FD1EULL,0x10F90EEF25381315ULL,0x08F8FB13474B0925ULL,0x06FCFE051832F019ULL,0x0803FF082315F518ULL,
0x0010FC084A39F42EULL,0xE1020E29F4E7FB02ULL,0xDD1B1205F2F1FEDDULL,0xFC051C1FC6C917D7ULL,0x031518000CF3EEDBULL,0xE30BFC1EF8D909F2ULL,0x09F11CF7F8E4F1DAULL,0xE60A0903ECCD11EDULL,
0xE7F7FC01F3EEF3E0ULL,0x08FB1109D9CBF1DCULL,0xFDFEFDDA0A18FC42ULL,0x09F7ECE709F5FB19ULL,0x19E1F50A13260924ULL,0x0A0CF8BBFA35EF1EULL,0x1E0BFB0A1B02FD23ULL,0x1AF9030B0236073FULL,
0x09FEFAC01433E816ULL,0x0C07ED0900F9F1FBULL,0x10FEE819172CF0F2ULL,0x061608F81CB10AEBULL,0x02F80BEF2524EEDCULL,0x100806F3051EF80AULL,0x0210F0FF06A41118ULL,0x1B0C00F92714F5EFULL,
0xFD03EAEB171FF0FAULL,0x18FBFAF8039D08FCULL,0x02F6F9E61C1108D6ULL,0x0DED06E6FB100FFBULL,0x11FCF90206F3F501ULL,0x0C0A0506121706FBULL,0x150E070B14FAEFF8ULL,0x120B00EE09E8F3F6ULL,
0x0E04F0F823120300ULL,0x1014FD031C0CFBFBULL,0xFB0102F812E40007ULL,0x08F5F6EC1FF007F4ULL,0x020B00F11810F6F3ULL,0x3633040125AFD442ULL,0x2613ABBEE207DAEAULL,0xC21C38112AFD3291ULL,
0x0F1803B6042ECDC5ULL,0x32C92504FEFFB8EFULL,0xFDCEDDAC3F8EF192ULL,0xE9D7DBD5F9203BCCULL,0xE1E122BCF42DE337ULL,0x07384FD70DF0DB39ULL,0x0AFBF2EF03E905F5ULL,0xF802EEFE100E06FEULL,
0x0FFAF202010E0809ULL,0xFC0CF2F509C8FD0EULL,0xFA09FCF1051F07F6ULL,0x0E09FFF7051DF4FEULL,0x10F804EE04C1F902ULL,0x040D09F41825F901ULL,0x0CF401FB0C16F801ULL,0x87A7E2D1DCA2C9EAULL,
0x841417B7B6B128C4ULL,0xE9B0DEB3A264F16FULL,0x4F53C598B7D324EDULL,0x1D8BCD0D3CB0EDE6ULL,0x2E27823916AED9AFULL,0x04B4994B2B6A1609ULL,0xC2C5BEF0F5F1BC06ULL,0xC287F6E9BEAF2D62ULL,
0x350B15182008070FULL,0x1F00FEF8210FF821ULL,0x20FA07FE17FD0C12ULL,0x2F03F3122104FE34ULL,0x1F12F811060CFC2BULL,0xFAFE04FF0BFF0B15ULL,0x3A03FA03FF04105AULL,0x1F08FA030006FB43ULL,
0x080E161101FF0C42ULL,0xF5FE0AFBE5EB0DC9ULL,0xEE1EECECEE0B1AB4ULL,0xF710EA05EC0201D4ULL,0xDC0DFFEBF00119BBULL,0xFA0216F8E6F4F59AULL,0xEBFA08F50BF802BBULL,0xDF0619FA040505A1ULL,
0xEB09F904E815F496ULL,0xE201090E10F3119FULL,0x070AEE0EF50C020BULL,0x040BF71D14FFFD02ULL,0xFA1BE3F912F31837ULL,0x0EF0F2F9FD08EDF1ULL,0xFFF0060F1010EC1CULL,0x030EF1FA15F60A32ULL,
0x04EAEFEF1B04015FULL,0xFEF1190E1018F728ULL,0xFF0E08FE1EFA1448ULL,0x0E011902170AFC1DULL,0x1303FC0D04180340ULL,0x18E6010F080C0938ULL,0x09F4F5F31517FE09ULL,0x1D01F7F9FC08F8BBULL,
0x21E0F410131CF321ULL,0x1A04F0180F0CFF01ULL,0x12FE071AFF02F8C6ULL,0xFCE905100910EA3AULL,0x17FDF9071509FB3EULL,0x1102FBF60C0CFF2BULL,0x0CEEF8F905160222ULL,0x16F9FFF50318F00AULL,
0x05FAFB0815180201ULL,0x0FEAFF111211F721ULL,0x1603F6080411FD11ULL,0x1FF0050E020FF3B4ULL,0x0C0401FB00F9F122ULL,0xEF1D30C6482FEB00ULL,0xB52302C1E8DCB1D3ULL,0x0AC0580E1B2006C9ULL,
0x0220B14BEAED0FECULL,0xB845D83020CDEAE6ULL,0x9EE8F23ACCCDCCAFULL,0x00E1D8DFFBCDB63EULL,0xE1D8E0EE9C29A431ULL,0xF61A3FBF0334EDCAULL,0xFAF107001405081AULL,0x0AFD100410150806ULL,
0x19EEF808010F0113ULL,0x0FF600FC0F0EF90CULL,0xFFEF000A09130701ULL,0x0B020CFB0316F212ULL,0x05F70EFF1111F3FBULL,0x11EF04050B130403ULL,0x1603F40D13080504ULL,0xC3AB49CC8DC358D8ULL,
0x314917AB0234C197ULL,0x4A2E4718B9971535ULL,0x549DF32051504EDCULL,0x8A17994C44F6E6C4ULL,0xF060A60DC00C8D1AULL,0x44AB4DBC28FD8300ULL,0x48FD4C07D9F8563BULL,0xD0140CF2242887BBULL,
0x08F1CC20F7D81E2DULL,0x130C0D1BEBEE003BULL,0x0BE5360F1DDFFD01ULL,0x1FE3E42DFE08F1EFULL,0xFDD82FDB02CAC9E3ULL,0xEA08D0EA0E00D0E7ULL,0xD4240CF902DA2A26ULL,0xC6DDE3F1CBDFF72AULL,
0xD6E31131EA0501E8ULL,0xE80FE60D371C3315ULL,0x181CE32407173A09ULL,0x2544E32106EF0707ULL,0xF5181E0545010531ULL,0x191ED9ED16292F1AULL,0x1A70FE080B2EF1F0ULL,0xE765E8FB210F3220ULL,
0x144DF0173D1935F2ULL,0x247FF5E940E825FAULL,0xF50BF3F614EEF3F5ULL,0xFE3BF10512FFFBE5ULL,0xD62604DD0EDBDDFCULL,0x030AEF25110C2D0EULL,0x0838F609F7F61819ULL,0x0F1BF3E40DE512FDULL,
0x1AF30A1D0838272CULL,0x1F141304090C0828ULL,0x12F907020EFAF402ULL,0x0C47D3EA3B20F235ULL,0x35FBEA1705171AF2ULL,0xFA51D82B34FC21EBULL,0x15190CE3172AEF2AULL,0x0CEC04E449084B17ULL,
0x2A33140D25153C24ULL,0x1B6C14F3092F0342ULL,0x066F00E502F91345ULL,0x2257F22542E2FC2EULL,0xF0EC22DADE06CA05ULL,0xC4D1E8FD3AEEFCDBULL,0xCFB7FBAF4BF2CDFDULL,0xD02740AAE5D7F801ULL,
0xACA00FE82A24D6DDULL,0x1FDD2FC40BED3F07ULL,0x2EFEE3C044FABD2CULL,0xCAC9C2E51EE40C05ULL,0xF8F7E01B18CBD534ULL,0x2019170A37FD0213ULL,0xFD1E183308323140ULL,0xEF11110111002F1DULL,
0x1241F60F37EDFB38ULL,0xFC0E1308401E0EFFULL,0xFD1A1E0C29021AFBULL,0x1B5A1E1E34261221ULL,0x161D09293306FE1AULL,0x06391B0F32152FF9ULL,0x20E7E0C0BF27FBD2ULL,0xD4D5DCC0B80FD313ULL,
0xB6E12A0FC9EC1417ULL,0x061643CCC432DDD8ULL,0xDB1F3BEBF3320B35ULL,0xCC3EF5D7D6D9D632ULL,0x2FDA0DF433D3E63FULL,0xD3EADAE6B63BC91BULL,0x25B2F934C2BDF125ULL,0x1B0E0F0E2018F4F5ULL,
0x0D07FE291E1A0617ULL,0x033AFB070818FC0BULL,0x092012FB03F42A0FULL,0x1CE9EEF906272D21ULL,0xF9FF0B2603FA2EFAULL,0xEA1AF5EB1C202E0FULL,0xF30A0F1B131C1F04ULL,0x1A11F9241116141DULL,
0x04D9D1D8E63FE636ULL,0x162FCCEFCD0F4049ULL,0x12F7D3D31F44214DULL,0x33E12615F323493FULL,0x2619EF08CD000716ULL,0x31C9F61C0BFE3E3BULL,0x4FDC11D9FA01332DULL,0xFA1B0FE1283D0AF1ULL,
0xF6111ADF0C45140DULL,0x0936F72418D518F1ULL,0x000611F8F0E7EEE7ULL,0x0A14E1201BFCDDDFULL,0x1C39EE06E0E4FFD4ULL,0x01FCFE3111ED0EF9ULL,0x15F5E22EEC070EC9ULL,0xE41FE0F40DFED5C1ULL,
0x1A0C1402DF0FE5D8ULL,0xF426E400F909C5C1ULL,0x0AFDF414F8EDFFEAULL,0xF5F20BF2FCEEF1F6ULL,0x01EBFEFCED09F902ULL,0xF5260014F906D9E8ULL,0xE708141EEDE5DFF2ULL,0x140EF0FC08F9F504ULL,
0xEA35F91AF100E8E4ULL,0xEC280829F7FFF2E5ULL,0xFC16FCFAF20EE803ULL,0xE23A10FA24FBE5E8ULL,0x1B40F13A01FA11E3ULL,0xDE4801DF180D13D6ULL,0x094B0F00E41C09C5ULL,0xD10DF5F62C22D815ULL,
0x180BE8E80FFF0DCCULL,0x043DF01B0E0EF4B6ULL,0x191615E9DA08D6D2ULL,0xF9F0DC1FFCDAEDF0ULL,0x0BE32600E3D03D01ULL,0xE40BC4DEC3E209FFULL,0x0D4BBD2CE3EE09CBULL,0xD220D3FABB0AEEC0ULL,
0xFD211BF10CF4422FULL,0xF0D3D4DC0401FA19ULL,0xF116001A40C3172AULL,0x0ADD04D0D9BDD51BULL,0x37350811DD0D21ECULL,0xF927E208EB06F4DBULL,0xF303002015E4E6D1ULL,0xEE03F717EEFB0DDCULL,
0xF51AF31A1ADF05F2ULL,0xDD24010317FCE3DEULL,0x0A03F427181B03D1ULL,0x002C0803FEECDAC9ULL,0x1122F823F8E016CFULL,0xD52AEC0B0AE410E0ULL,0xE632EA04EA63645EULL,0xF814FED83EEB064AULL,
0xF63401080EF65603ULL,0x4AC0C3D42E002B52ULL,0x21BD14E138EFDFE6ULL,0x520DD2DEFC08E458ULL,0x66DFC6BF45395A0FULL,0x55E4D445272558F8ULL,0xECCDC7E9D3494823ULL,0xF502FFF0FCE5FEEEULL,
0x03370A051CDFF3D2ULL,0xFA32ED06F908DB06ULL,0x0224DFF9F0070501ULL,0xE514072813EF10D5ULL,0x1608E6FC08DFED03ULL,0xE303E30A1A0FD6EEULL,0xE935E71D01FD13F4ULL,0xE1071610E417E50AULL,
0x1CD8EA20C62EF0DEULL,0x0D3626FE0AE42FDCULL,0x15DFF40111EAEACAULL,0x24FBDD2D0E101421ULL,0x02F3ED2AC2D0C726ULL,0x4226CCDCDFE7FB20ULL,0x1D270BEA042D2EC7ULL,0xF9E5C41A16FBF1EDULL,
0x2CE13028E51216C5ULL,0xF1043D086EE0342FULL,0xFBF50908451C11F3ULL,0x01240B1C50F11B10ULL,0x0628022C25F42EFEULL,0x09E11C2C501FF423ULL,0xF41AFFF562213D21ULL,0xC8052D152FD3F704ULL,
0xD617120F31F8124AULL,0xCEF80B3726FD013EULL,0xF0170EF914FDFDF0ULL,0xFC2607E30ADBEC01ULL,0xFF080AEBFCE9FF03ULL,0xEC17021A2BE90C02ULL,0xF1320F1114D8F7FCULL,0x0A1E15F21DE40DFEULL,
0xE71F141621E736EAULL,0xFB41242119F314F4ULL,0xF325090321FD0D04ULL,0xB6293FF26BCDFA42ULL,0xE5D827FF3505163EULL,0x0BF1FA223B0BE122ULL,0xDE2F0E1B64C4FC01ULL,0x18FD3A0155293FF3ULL,
0x03EA142A7FE90942ULL,0xDA08083952F8FE19ULL,0xFC2410EB0E1B2402ULL,0xDFF94A424307E80FULL,0x3DE13BCDF904C6B1ULL,0xF6B909C499AEF40FULL,0x1621E7D7CDC63AC1ULL,0x1A1528F6FAD2140EULL,
0x3224181491A806DEULL,0xE306B703E6E3B5DBULL,0x0CE514DFEDF620B9ULL,0x3CEB333E9EFC27ACULL,0xE9C0CBE60729DC94ULL,0xC41C020239CE0C21ULL,0x14EE0D04510C2306ULL,0xFEEF2F0E5EEA2C1CULL,
0xF1EB28162DFE1724ULL,0xF5E1304328E31108ULL,0x041D3F0151121E12ULL,0xEA142D2628FF1F21ULL,0x02EF023740F61821ULL,0xF9E7341840DD020AULL,0x11301643E3143009ULL,0x0D1024BEB8241D16ULL,
0xFEE6F10603FC00C8ULL,0x4D3B2BE9F3ED01D3ULL,0x0A3830C28F23BB08ULL,0xD726B61415521EE5ULL,0xEEED1E34EF520DB3ULL,0xD1D5084BC12A23DFULL,0x4AFC01C1D820B6D4ULL,0xD1E715213AF0EC26ULL,
0xDFEB252242E316F9ULL,0x0BEC152B3BF91C02ULL,0x0901F62A471C2C1BULL,0xFFF41A322AF4F6FDULL,0x082417F724F1241FULL,0xFA16F90803191919ULL,0xF711301109052104ULL,0xEC22F92709F72BF7ULL,
0x2F17FCF3CBE5E8B0ULL,0x133226E2E4F200C4ULL,0xF116031C2AEBFEE6ULL,0x1E01481418034FC0ULL,0x1C2B1A2032F0FCA6ULL,0xCAE6EBED2206F1EFULL,0xF9353DCF068109E0ULL,0xD4E4100934CC1CE5ULL,
0xF304F6040DA92FE4ULL,0xEE29B9190EBBF3F5ULL,0x1409FE1B1D1AEE45ULL,0x0714FF09F7EDCB1BULL,0xE7EA0FF0FEB6D003ULL,0x1900FCEA3BF7D00CULL,0x0A1CD42F19FDFD52ULL,0x110AE82305E0EC0BULL,
0x112601EA2C4DE716ULL,0xEDE503242241D62DULL,0xF901EDEAF97F0AF2ULL,0x011111DBF2460FF3ULL,0xF2F516DFE2F615FEULL,0x0423E20D0958E60AULL,0x0E041123FB28E9FDULL,0x0D070800EAFFECF6ULL,
0xF629E7362162E7F0ULL,0x0826F5140B1EE40DULL,0xF2F41514F8FC02F7ULL,0x2923B4013ABCE8FEULL,0xF735093B391EFBFBULL,0xF20DF4FB01E7DC11ULL,0xEF17D1F22198C825ULL,0xE121C63BF10CBF05ULL,
0x040DD1F51AF3BE54ULL,0x24050912E9CCD43CULL,0x102F0A2432FEC76DULL,0xF8230114E3F8F157ULL,0x34E62C0351FE24AAULL,0x26070C0FF4241598ULL,0x29D7C40263CFE581ULL,0xC5241202D91B08FEULL,
0x38FC29B44631CFFFULL,0x0CFEBAB9EAC42CF4ULL,0xB9110ACDBE213382ULL,0x3BABF2C82120EDC7ULL,0x3212FEB6FFDBCCD5ULL,0x170FED1EFB8AC20CULL,0x13EDEF2802DDD606ULL,0x1316EFF22CCFD525ULL,
0xF12AF4FC27810728ULL,0x0324EE283ED1122CULL,0x1E12CD1C38EFE210ULL,0x1F131AF0FC96E132ULL,0xF213F70B13E8CF05ULL,0x120BFAF2F72ED336ULL,0x2C0767CC4183F6C1ULL,0x3133F7CEC1A834ADULL,
0xD5EA10B70CB6D990ULL,0xC9F66A160D934FE9ULL,0x173855ECF883408CULL,0x381730C42A924281ULL,0x3CC7FFF436BF5CBEULL,0x1CFB24F9D1CA59F2ULL,0x2B3A0A170DC6FE87ULL,0xF2FBE1F1F286CB20ULL,
0x01F708140CEFE9F5ULL,0xE8FA0A2C22F0E533ULL,0x170C13F21581E7F4ULL,0xFD05E1F804B6F3F1ULL,0x08130BF8F72ADC31ULL,0xFEEC0EFB2993E60BULL,0x00FC150C19D8ED0AULL,0x1A12E11E25FDD11FULL,
0x0628EB09201D5703ULL,0x2B0D0BE73035644AULL,0xEC7F0EF4592A41FCULL,0x073DFFE65944F923ULL,0x0A2ED6EF2E455106ULL,0x2122FDE7191AFF2CULL,0x184711FD5DF724E5ULL,0x0F39D0234F360B2CULL,
0x2E46DDD301073FF9ULL,0xD53DEC1D48E6D3EEULL,0xD3054534E11BB2A6ULL,0x27B1C4281BC105BDULL,0xE611F33E37BCE8BEULL,0xE604FEB8CCF2B803ULL,0x92CE22ABD7B716C7ULL,0xC54046AE002222CDULL,
0x19ACD124CFA40CD1ULL,0xC0D25314EFCD4AE1ULL,0x0B5DD0F315203BF3ULL,0x1425DD1A4AF743F4ULL,0x2E3D130BEF363237ULL,0x2E7FF1E14730F6FFULL,0xFC28F72822300BF8ULL,0xE438D4F320220531ULL,
0x166C05F6FF36E813ULL,0xEB3517F90E1F3EF0ULL,0xDA4FEF192A13013CULL,0x4BECEF6B2A5B4661ULL,0x380C0F5115333623ULL,0x2B18F4100E36101CULL,0x37F5ED26024A2C2AULL,0x39FFF61C10311620ULL,
0x051B00F31416E803ULL,0xF01A121200162514ULL,0x080A04EA18F90EEEULL,0xF51AFCDFF0FCF6E7ULL,0x1F2319282DFC0511ULL,0x1405E40D1122012BULL,0x150AEC1E0C2B1C1BULL,0xEA28F50C301AF607ULL,
0xFBDD1CF11B261804ULL,0xF2F3F9081FF32D2CULL,0xE4520EF8F5EC1D1BULL,0x1501100215042610ULL,0x0E321DF82915160DULL,0x09F8DF1D20294207ULL,0xEA0ADAF92623030CULL,0xEF511B26243E42F2ULL,
0x130A190E3B263633ULL,0x0FE8E6FB2E191922ULL,0xF836113103E6FC2DULL,0x0C11092429303131ULL,0x1F03EE2B08353506ULL,0xF80D01EA2F030614ULL,0xEF45E4E030E73720ULL,0x2D2FE93302393011ULL,
0x1A24F81806F01304ULL,0xEA23DFF222120D2DULL,0x021F2408FA0209FEULL,0x05220C251235FC17ULL,0xDD49F3EFFAFCF137ULL,0xE51D0014341B17F3ULL,0x2B580014241C2038ULL,0x2AF0DDE84A300045ULL,
0x191F122E4734030CULL,0xDD2D13FDF72A1410ULL,0x3323D72E39F8303BULL,0x0E28D6FD14F20847ULL,0x06290237FBF50B27ULL,0x2C661AFA2D0B1C1AULL,0x324F263513381346ULL,0xE440F318F907393CULL,
0xF60D250A05D0C3AEULL,0xD447E1E7D7EFDD03ULL,0xEA58D92A1508E3EAULL,0xDB2C23FB11D2F306ULL,0xFB1D343015DEC2AEULL,0x0512282DFFFBDE07ULL,0xC81A202AF7EFA8F6ULL,0xFC35E311091AC7FFULL,
0x06541F0EF5EFCFF8ULL,0xDBC7F90A29F1312FULL,0xA8B5D92CD6E5C9D5ULL,0xE4E7F0C0EC0DD5E7ULL,0xD221EDF113D3B638ULL,0x30AF1AACE230D252ULL,0xFEEA0DA1C6FD471EULL,0xCBCDC649462DE1B4ULL,
0xDCB02916380FEECFULL,0xF02B05B8D64004E7ULL,0x1927373A2AE3A9F7ULL,0x01F61809EE12C5B1ULL,0x0D13F130E7F8B40CULL,0x1441E311DC06C0B3ULL,0xCE442120FD00CABBULL,0xD927102701C81BFFULL,
0x0C25F0DEE70BBDE0ULL,0xFC2FE3F7F316F5CBULL,0xD62CECE4F3FED8F5ULL,0x016FF26AF50307F8ULL,0x003DF929EFF80EEFULL,0x0E380C0DF212FCFDULL,0xF03C0723F803F80DULL,0xEB2AF41D1308FBF8ULL,
0xE908F6F8ED09EDEDULL,0xF815F809F4EA0000ULL,0xEEF40712EFE4F511ULL,0xE4FFF0EEEEE8F7EEULL,0x0D37150508FAE50EULL,0x09150325E4F1E2E3ULL,0xFB221603F2E7E2D4ULL,0xE014EA260EF706D5ULL,
0x0216FA2AECFA09F3ULL,0xEE1608000B02FCDCULL,0x042CE50C08F4C7F3ULL,0xE3372000EB160904ULL,0xF61F0423050C0809ULL,0xCC20F0F5FB1003D6ULL,0x0017F312DECABAE7ULL,0xE02FFD04FCCBBFE5ULL,
0x1DFB28FB05D8CDFBULL,0xEC1C0D0E0DF61802ULL,0xEC29E02DF7CFE3DCULL,0xED3CFD29E7FB13F7ULL,0x1D45E203EC18D6CAULL,0x09182C001EECD7D9ULL,0xF53AE33126FCD003ULL,0x243CF507DFEDF7C5ULL,
0x23061E1B0CFCBADBULL,0xE41401E800E8BEF7ULL,0x0131292222190B03ULL,0x13FA16F80A1B0606ULL,0xF42104050BE9F203ULL,0xE227ED32DA090809ULL,0x02400726EAEBF7C4ULL,0x0DF4FF0A261F0AF4ULL,
0x054CF4ED180FF3C4ULL,0xE93913E802ECF0CFULL,0xCEF6220CFCE80BF0ULL,0xFE18E4380A01DDD2ULL,0xD43402FB1EE1E9CBULL,0xEEF7132610ECB1FAULL,0x034C10FEF700D5D6ULL,0xE907332512E6E2F0ULL,
0x08E865602DA8F623ULL,0x172517383AE20AEDULL,0xD4210F5A6A144B4AULL,0xDFFD62103DF720E9ULL,0xB8152F2E7A2AF721ULL,0xDE0D5B01430E5C22ULL,0xD5053F5D3DB63C1BULL,0xBE0A45500BC54303ULL,
0x0A3A10261CEA2033ULL,0x332216F199BB3211ULL,0x26C42D0DA2B2BADCULL,0x3150F6BBC1263A8CULL,0x0B6825EFE1462CBFULL,0xBF45263081ECDA22ULL,0x363E0EF3AB0EA390ULL,0xCF3CEEC9CEC7E7B5ULL,
0xC2D2FD30C82AFF24ULL,0x5AE925A8C7C2D3B7ULL,0xDED231E652DBDF4EULL,0xDCD82D1D71C3F9F5ULL,0xBA1F1B3962E10B16ULL,0xD2ED0D343DE4F84BULL,0x09FF100075CF1813ULL,0xF5E224356D1FE9FCULL,
0xD9FBFC2E2DF73553ULL,0xF0163E1A521E3324ULL,0x0D0B332DF2CB2720ULL,0x1702384F0EFA5109ULL,0x0D38382DF505FE07ULL,0x0B561B3915F47F02ULL,0xF20A202F140C1202ULL,0xF0112A2518F4F8EFULL,
0x045FF51C0DEF67FAULL,0xFCEDF7160CF1FFFDULL,0x06F41EE818F7E310ULL,0x093CEA0021064607ULL,0xF710211E5AFB2A0FULL,0xDF201F0A470603E9ULL,0xDA00161C5A0CFDEFULL,0xD1142BFC4C0EF938ULL,
0xEAF50B3617120405ULL,0xF4F53F17370E00EEULL,0xE4EFF12746D32729ULL,0x041322FA25FBFD11ULL,0xE20309EF2EFB2232ULL,0xCBD90C39281B1CF8ULL,0x022647F873F2F413ULL,0xC4F03A4066182724ULL,
0x14FB421433DCF9FEULL,0xCF031E0532E9ED0EULL,0xC0F60A4023FEFEE6ULL,0xEF161E12251509FAULL,0xC3DD17231F081529ULL,0x0E00221B381E1C41ULL,0xD12935387202F73BULL,0xD5ED212A7FE32FEEULL,
0x0A1C291B48EB02FAULL,0xE6EC21FA5AD72AFEULL,0xE0DE2AF748E4FBE5ULL,0xCF23492A3F103E38ULL,0xCE11FFFD2EF31913ULL,0xE229471822E9050EULL,0xC81422343DFB1413ULL,0xE80449F841DD0E2DULL,
0xED194EF55EFDEED9ULL,0xFB1905F22CE201E4ULL,0xF6D8323657F9242AULL,0xF5D71243372B35E9ULL,0x0AE6010178213E2FULL,0xD018143B43D20013ULL,0x15291810060F1908ULL,0xE6E52C270F213743ULL,
0x0CE59D41339FA4FFULL,0x21FBD93C3AE2EDE1ULL,0x12ECF018EDB9DA0AULL,0xEF23E24B5C89D612ULL,0xF446DFEC53A5E9E5ULL,0xEB10C21E06C8CA56ULL,0x361B24EA2188F52DULL,0xE83CBE2911C6B30BULL,
0xF8D5D10CFA07DE46ULL,0x340B2EC1270757F8ULL,0xED02371DE65262F5ULL,0x09D1EDCFF40B1A9EULL,0xB2C7361FE0F1DAE4ULL,0xB12B0630B20B1CC8ULL,0x25292C27A9ED5EFEULL,0xCA0DEEBCF5A5CFCDULL,
0x3C3F3EE80AE2ED0DULL,0xB91D2E98BEB328B9ULL,0xE6FEC13101879E4FULL,0x13060031EDCBE023ULL,0x240CED17E3FDB917ULL,0xDCE8EB174191FC5CULL,0xDAEBEC1C2DB9E00AULL,0xF92DD7E626D3CF20ULL,
0x2903ED1F2BB3AE3FULL,0xDE131C182FE2CD16ULL,0x30EC011D36170A1EULL,0x015EFC4E5322F6FAULL,0x0A2E133C294801F7ULL,0xF924072124F6ED17ULL,0x0F3A09182D11FCF5ULL,0xF9280B051D3911F7ULL,
0xFC0307F7F8F60015ULL,0x0F16120A1D42FB02ULL,0xFCFB01E301780DFCULL,0x0AEBFCECE73E060FULL,0xED02E7241E87C63BULL,0xEA0ACAFA21C00DFFULL,0x0F0AD4F524E5D8F5ULL,0x1000010A17810033ULL,
0x1A23F0172FC3E2F6ULL,0xF7FBDFF0FFE9EB22ULL,0x2113F0F6F49CE419ULL,0x2713DEEC0AC7E115ULL,0x0001FB0E11F7E029ULL,0xED160028F281EF3BULL,0xEC31C10005ECB6FFULL,0x0BDBF02D1BB9DC39ULL,
0xE4F20FFAF1810AFFULL,0xE6E8EC2416DA0916ULL,0xE5ED0F093ABBF40AULL,0x2A0FD32DF38DE316ULL,0x2705F3F70F04FD16ULL,0xF3E1E3FA0CCBF33EULL,0xF30FD0F0F0A6CD4AULL,0x280FFE2A302AC21EULL,
0x22EA12EF25F0B22FULL,0x3219E9EF3795F80DULL,0x15E902212CEAD117ULL,0xF72B19291C0ACE48ULL,0xF00006FE2395CF15ULL,0xE020FF17F812C545ULL,0x0BF7D4E53CF7C02AULL,0xEED6CB0A1681D8EAULL,
0x30F4040B35F5C124ULL,0x032B0D2109DEC935ULL,0x1C33263C0FA0C838ULL,0xE2290F16F2C8D819ULL,0x02E4CEE927D5C03DULL,0xEC1D18DF26A3F035ULL,0xFC1EF71E39E3D81AULL,0x042DDA331C34FF33ULL,
0x3013EEF122F7360CULL,0xFB2CDDE32311252DULL,0x26682013FA16F63EULL,0xFF18FCF1FA101127ULL,0x2F2CEA1A4726100DULL,0x1D4825EE4A222A12ULL,0x1D040504F5003D0CULL,0xED16F6FB01FF3E1DULL,
0x08280CFC18111F12ULL,0x1F24BBFFE744BF37ULL,0xD9B7EE1FBB2AE83EULL,0x1B06ABAF431AB6CCULL,0xD8E14EDC4310F8D5ULL,0xE222F342A4BA4616ULL,0xA1B0D0491CA3B2C0ULL,0xF6F51EF1E0423DCCULL,
0x3D0CF13E4FD52A04ULL,0x1AA535B401A90652ULL,0x07FE02062407112BULL,0x3AE71718171C3534ULL,0x12EFEF291C0A0806ULL,0x300D0E010D101B0CULL,0x40FEF33431482233ULL,0x30FE0F36191E2034ULL,
0xF00B02F118080019ULL,0x0D23011E09152DFDULL,0x0012EB0F081A0500ULL,0xF00A1E2A29021625ULL,0x1CFEF03F0C1A5023ULL,0xDB0A06FAFCD7E5E4ULL,0x16050D6C1D495841ULL,0x6819E7551E594145ULL,
0x2D5C1C284021FA08ULL,0x08E90032F73E2A2AULL,0x183E0431362C4813ULL,0x3463E3D825E6EAFDULL,0xEF5FF3FC28EE0114ULL,0xE31119EC3C0F2431ULL,0xF15125030F0E2FE9ULL,0x0A61F6F931F4F2F0ULL,
0x2118D9334C332F1EULL,0xE3F2FF22FAEF2C41ULL,0x1E5319110129160AULL,0x3307011A302BF040ULL,0xE61ED6F41936113FULL,0xF50DE911141CFD21ULL,0x05EA15F315FD13FEULL,0x0A07F2E700261A09ULL,
0x072A111C09EE2803ULL,0x20F9EB0D1DF629FEULL,0xF732FA062310FA08ULL,0x1206EFFA2719FA0EULL,0x232C01160DF12B11ULL,0xF12CFCFB35122510ULL,0xB8F0C3F30A00B8C8ULL,0xC581E305D83D42ECULL,
0x08C0B19EBB914E0FULL,0xA8F25FCCE1CDE737ULL,0x1A88BBD9164AF02DULL,0x1B59553B0C3F4304ULL,0x19A72A33F5A9CEF9ULL,0x8BE8DAABA9424C3BULL,0xB6D0CDAB4A4CA1C2ULL,0x270FDAE1BA0E0CB1ULL,
0x97DA1B1030C74C29ULL,0xCFFECC1C9526D347ULL,0x2401CCE8A5EEF8FEULL,0xB3AAD3A9D30D3140ULL,0xC516629BCAF5AFA7ULL,0xB4FF48631696EB34ULL,0x30BBC41233E79FE5ULL,0x149FBB5906C0B363ULL,
0xDD28EAFD26F5C005ULL,0x060FE300F2F906BEULL,0xF915002103F6E3D2ULL,0xDF40002BF4E4E0BEULL,0xD74A1937EDD1E5BFULL,0xF6FFE91EE5190CFDULL,0x0106FDF9291405CCULL,0x0725E6F925F708E6ULL,
0x041F202D13E608BDULL,0xD5F5D00131D52FBAULL,0xB1DA54F9550360B7ULL,0xF208BE0B07C71A4EULL,0xCAD3C4C8E9BEBBD7ULL,0x5B2FF730ADC1E9BAULL,0xE6E0C1A9CA2BA7E5ULL,0x1CCC0920C2A84E2FULL,
0xD9DEBFD7AD4CCA0FULL,0x091AF64CDA2A01DBULL,0xFE240F0816FDF3DEULL,0x142D031D0DE5FAE3ULL,0x042EF32A180CF2EAULL,0xE628162AF4E40EDDULL,0x012FF929EDF306E9ULL,0x0128F41E15DF09E6ULL,
0xF60FFB17F5D5FBDBULL,0xF336040AFC01E5E3ULL,0xDAFDE82013DCF9DFULL,0xE63FF913E6D7E5ECULL,0x113F07351FCD060CULL,0x150D1DDB06B9E6D5ULL,0x214E1D3B13B1D301ULL,0x1B76E169F6C0EDE7ULL,
0xF9F71C151AD1E907ULL,0xFB48F63D19AD0DF9ULL,0xD745F547E3DCD6EAULL,0xD7D0E4F7EBDAEDE8ULL,0x0522E4DF2BDDD6BAULL,0xDEF60D2207F801E6ULL,0x00EAE8F6E8F9B9C4ULL,0xEE17EE35EE00FEEFULL,
0xF3401629DA1607C4ULL,0xF11B1DF8E719D1E5ULL,0x19F2E0F72D04F20FULL,0xE34B1204E2F8FB0CULL,0xEAFC2AFEF9F5CDF1ULL,0x17FFE6FEF606F3D2ULL,0xF42AFFF41AE3EBF2ULL,0xFF24E00C1111DCDCULL,
0xE2050625F700FDF0ULL,0xF718EC28130CEFD1ULL,0x0817E922ECE5FFFEULL,0xF9FB01EEEEDFCEECULL,0xF8FD121C0DF4E4EFULL,0xFB010F0D0AE8D7E1ULL,0x1608C20CEAFB2D22ULL,0xD34025B300220630ULL,
0x3EAE374429F9CD14ULL,0xD8005B07B9F6418AULL,0x8E9DA3FBAA1292F7ULL,0x8D0D12FD01BF4632ULL,0x392318990EC507DEULL,0xA78BD3DEACFE0C1CULL,0xE03232396034E5A3ULL,0x87F04126D79001F1ULL,
0xBDE6E3A23192170BULL,0xC2FD4342C28C3405ULL,0x3B59CBD639B145D0ULL,0x3FF31FE29E0BE0DEULL,0xC64801CBBC8E0EA9ULL,0xAF38D1FB21D499B7ULL,0xDE3257990ED021E9ULL,0x04A4FF034303CEDBULL,
0xFFE82A332E100834ULL,0xD2DF26306A01FC3AULL,0x0204170777FC2D0DULL,0xCDE919FA50EDF1FFULL,0xDD2220332AD527E8ULL,0xC0E906006D000A3AULL,0x0DF0252FEB1715ECULL,0xFA233313FF11F1FEULL,
0xD606F71D341721FAULL,0x1813E7FEF038B0BAULL,0x34CD49AEB1E651C5ULL,0xB8CBF6488E563022ULL,0x2FF3F0CB19BE03F2ULL,0x53299FE181D3AFA6ULL,0x051F2EC71E54360AULL,0x4FD00018D6B0DE91ULL,
0x17C0AEBAA2E01119ULL,0x094F2348D918108BULL,0xF0E6040511FB1907ULL,0x0C04362930132DF7ULL,0x0E1C3B1F1103120AULL,0xF21A2A13FDE11819ULL,0x080810211B0F20F4ULL,0xFB14162F12E83501ULL,
0xFDE4F21122001420ULL,0xE0EC2B1E0CF82402ULL,0xF002280907DF2D0CULL,0x08BEF5122DC64314ULL,0xECFD462EFDD6E718ULL,0xE41109ED09DFB8E1ULL,0xF30FFF7834BC7D04ULL,0xEE59567F27DE26F3ULL,
0xFD761CF8FCC918DFULL,0xE212F66401076906ULL,0x033F362A00DD0206ULL,0x0E58F303F6F0D4FEULL,0xA20A05FB7FE0111AULL,0xCC1C111D55123007ULL,0xFE1936143111EB1FULL,0xB307020E24100405ULL,
0x02233BF34C1CFBF8ULL,0x18E024F25CFCEB0DULL,0xC7F5312624EE010FULL,0xE7110D042B1E181AULL,0xF61834023600171DULL,0xE70D082D1AF2092DULL,0xF205210A3FE80FF9ULL,0xF5E41E1448F902F9ULL,
0xF7FA081119EF1DF4ULL,0xD6E217263116FD13ULL,0xF7F43AFC49F726FDULL,0x04FAFE1810E8230EULL,0xF9F30EFD19EBEF10ULL,0x020E2C2A03DB042CULL,0x2046E5DC193FCE35ULL,0x9C1755C0032AD317ULL,
0x433625F5E5C9BB45ULL,0x8BC623A18F21EA05ULL,0xF6D68FE8DCBADAE8ULL,0x8F8CF4F4263EE119ULL,0x41B8D71D3ADF28B3ULL,0xBDB203C2FF393B22ULL,0xAB4543A7AC42BAC3ULL,0x4A8B0405D386F604ULL,
0x4641ABD1FAC7E2F3ULL,0x15CB5301C0C32F37ULL,0xBF932A1436D4D6F2ULL,0xC49B2EB2A3B24135ULL,0x2FCBA1014CB7290DULL,0xD414B8DB1411F8E6ULL,0xFA9B2A9CB8D9E642ULL,0x4C273B08A39F2C03ULL,
0x1FFBF6221BDAF11AULL,0x0B1EEAEF3207E918ULL,0x24E7DE13EFFBFF05ULL,0xFEF7D7102D88F1F7ULL,0x1D23CD2D0BCEC924ULL,0xFF1AF21010F1F94FULL,0x1A2AE92D0181CA15ULL,0xF423072A0A0DBF4BULL,
0x1CE7F1E421F9BD32ULL,0xDCDB65F7C41239F0ULL,0xFB2D2821B6040EBAULL,0xC4F043AFF2DD06B8ULL,0x1FB3754721BAF9AEULL,0xE91507D6243119D5ULL,0x54220DA1B6F917C2ULL,0xE21419C6B79A4F93ULL,
0xC047F20EB20750E6ULL,0x45BCAAE7F6EB6D85ULL,0xFE24080B2AA7E2FBULL,0xE81EFD3C1DDBFC16ULL,0x0628ED1728110918ULL,0xF205F4310B810913ULL,0x03380A372EB1050DULL,0xFD06EF3135140104ULL,
0x08F201F71189EBFCULL,0xFBFDF30C07EEE005ULL,0xEBFA01FA162DF614ULL,0x0537E93E30A91318ULL,0x14360F3D04470424ULL,0x19E11DEAC406EDECULL,0xE64C10604AA50C16ULL,0x006C0F784D180EF7ULL,
0xE81D1C1AEE1DDA02ULL,0x012016183293DB01ULL,0xE42B07132C45F92CULL,0xE2F215E20800FEF4ULL,0x09FDC20AFDD9BC3FULL,0x0A2AD3071309DE17ULL,0x1111F5E7F5C1F8F9ULL,0xFF2B0F011C87E824ULL,
0x1304C627F1BB0E19ULL,0xEDE8CB0EFDCAF646ULL,0xFF03E5322EA0EC2FULL,0x20110DE835A8EE43ULL,0x16140AEC07BE0B1FULL,0xEE1FE3F403C2F0FCULL,0x07EEF1230AD0D805ULL,0x180CE1F40AE2F7F6ULL,
0xFC04DD242C81F6F4ULL,0x03EADD0B33B7F2F6ULL,0xF3E6D72623F7E32DULL,0x191F1016FEAEFF05ULL,0xEF1E090808D3F525ULL,0xF108012314DCE33CULL,0x562AB4FF26A6AF0BULL,0x58139BCFC81E23C1ULL,
0x0DCA14E4D0FBF41CULL,0x43254CF151CEA835ULL,0xE6D224CBA6C44025ULL,0xC5D5B7F996B2D0ECULL,0x563E3EAE4F1055D3ULL,0x2BEBE287342C4996ULL,0x3B04F31AE40B06AAULL,0x37032A41FD404885ULL,
0x4426C62AF7C9CDC9ULL,0x2983553597B9F7C8ULL,0x4A8148EB195DF1D3ULL,0x9D9FEA012616A0E7ULL,0x9ED6F39D9BC01ADBULL,0x061DBCA434ADAD4BULL,0xA4C25C44CFC79114ULL,0xDBB7C59E29C73BC0ULL,
0x13EF22D0E3E3D725ULL,0x2725102F1203F143ULL,0xE7F42FDD3D3CDE02ULL,0x1B19D31CCD02E2C6ULL,0x14CE2E2CF7002EE7ULL,0xE6BA08F7FDF3E445ULL,0xD6081E30D911E8ECULL,0xB60FE01EC7D80CC0ULL,
0x20FC27D0DEEEC2E0ULL,0xB49E04B9DCA4D199ULL,0xDBB430EFF9169B23ULL,0xDBF8B915E7051410ULL,0xA013FEAE1BDCA0F8ULL,0xDE04F2C50FB1B704ULL,0x051ADEACE9162C28ULL,0x19C244E7A421B1BFULL,
0xD5DB2E1FDDF1F80BULL,0x17BCC336EAB5B7D7ULL,0xE0290D0E2BF9FAF4ULL,0x17EAEE0743242700ULL,0xFD0E001349112D1EULL,0x1EF2250A36362541ULL,0xEF311D01132D4A39ULL,0x343A170F46094107ULL,
0xE32816063A390320ULL,0x20371CED21F54036ULL,0x2001E4E74019F41EULL,0x2034010B2026F70AULL,0xF715E5FA2C1C2420ULL,0x092AF408FBF53025ULL,0xF11DFF030A181B22ULL,0x23E7EB0C09F9FE0CULL,
0x072019EC00EF2819ULL,0xEA3316EC02FA1104ULL,0x1B2607EC021B0B2AULL,0x0B29FB1BFE231E21ULL,0xBAD808F9E5D903C7ULL,0xE3C70E041B08CDF2ULL,0xC019DA1016F3D2FDULL,0xF4DC2ABBCC09FDF0ULL,
0x06F9071218CF1C16ULL,0xFAEF0420EE16FA14ULL,0xFE23EDFDCAD82F0EULL,0xE7C238E12FFA280DULL,0xCCD0D4FF0ECCBB00ULL,0xAAD4172535B6E51BULL,0xBAC31CE33F17DCC5ULL,0xB6DD17D8BA3A2A59ULL,
0xA3C443C0310EF8E9ULL,0x3CE613D00417B5E4ULL,0x2CDDE106C8110319ULL,0x1EF721B4CAE82E4BULL,0x2ADFDBB3ED34D3D9ULL,0x1CB147DA4DF74E19ULL,0x190D10F92BF5061FULL,0xF70818FFFD22252CULL,
0x1120FCEE350F3619ULL,0x144A0D27271D1604ULL,0xF118FA11052210FCULL,0xF92AF60F23F0FD25ULL,0xED6620EF26FF131EULL,0xEA1808EC272B0728ULL,0xFC2E20FE1C07FC32ULL,0x19B4F52BC6ECC79FULL,
0xB263119A5CEF1E3AULL,0xF4E1C61F30F2E73CULL,0xDFBC44A8B4ACF2BEULL,0x9F070DC2258F2418ULL,0x27AC0AEA25DC4A50ULL,0x34A813A552BD55BEULL,0x10A9CCB310ECCB13ULL,0xDCC3FFCEC549052AULL,
0xDCC2DBFAFD392B09ULL,0xDE31D0D4D91B3118ULL,0xE6F1DCFE2B44FFDFULL,0xE0C324FCFBE814DCULL,0x2DF81BCF2910D03BULL,0xD415EA22D7DAEF32ULL,0xFC0F01322ED6FF29ULL,0xECCEF612FD23013AULL,
0x2FF501DDED1A4038ULL,0x040D4898E0BBCFCBULL,0x0CC407C2CC06A7A4ULL,0x94AF0B27011CE500ULL,0x8B1448C5CFCB21DAULL,0x8FAFF8A7C7DADAC6ULL,0x11C9F3C7D810A9ACULL,0xBCD23B21FAC9BB2AULL,
0xB3FD17FF18BC81A9ULL,0xB7ECCDE7E22991A6ULL,0xF61515111A0BF8CDULL,0x032BF4EDE914D306ULL,0x23FEE91DF0EF06F5ULL,0xD247FB231711F6D2ULL,0x1D13191DEE16FCCFULL,0xE63B1735E4FFD500ULL,
0xD61EF5010BF2F5D7ULL,0x110A2BFC14D9E1E2ULL,0xED41E515DAE001F1ULL,0x010DEC00FADBE2E6ULL,0xF7FAF404F7E4E70BULL,0xDEFFFA25E5E2E0DDULL,0xE7220315FEFC00E4ULL,0xEA1A08F3F5110FE8ULL,
0xFD34F0FB090FF4F3ULL,0x0532F014E3E4EBD9ULL,0x0CFD1115FC09FDF8ULL,0x1304E6ED0313DFD1ULL,0x3627F318D7D10605ULL,0x03DE24E7C42BFF3DULL,0xE420F1E1F5F30E16ULL,0x112CE5EC220FC614ULL,
0x32EBD0261B0524F6ULL,0x12D7E1D4D738DE30ULL,0x1719DDCBD1DEEA33ULL,0x23BE0F1013DBFD17ULL,0x2D21F414D838D535ULL,0xDEC83E3225C914F6ULL,0xE13A1EB4EED60A07ULL,0xC509BDBAF7CDD9EDULL,
0x55E42CD0464E1830ULL,0x2226FB06E4B71223ULL,0xD74FC349FCF818CAULL,0xC9F83EC23207D017ULL,0x3D32CAD6EDE2E6D0ULL,0x16EA0D55C1F7D248ULL,0x0A00FA1EE3EAC6F4ULL,0xE50CF709F20DE0F7ULL,
0xED15E320FFDFECFBULL,0xF735130EF2F20AF3ULL,0xE50DE8191EE8E4DCULL,0xE107E21712F0E6CDULL,0x12101CF917F4CC06ULL,0xE10B082315F405F3ULL,0x09361C20F915F203ULL,0xBEE2E61E0607D4FBULL,
0xAAE2E5CD032B09BEULL,0xB5F0F8F6192CF2E0ULL,0x0CB5CADED1AFA611ULL,0xF98120EF2A3BA3D3ULL,0xA2184A4B3EC5E634ULL,0xA9CC30F908B8FE34ULL,0x0DAF334727F71BF9ULL,0x4022500DD1B51CD9ULL,
0xE43A330598DFD0DBULL,0x31F7EAF19EE8DDC3ULL,0xE9F32915A71F4415ULL,0x282A21139BD1FDB3ULL,0x0E33F1068130D5D1ULL,0x1A3CF8FDA0D91CB0ULL,0xE3C51BF9B70E2ADAULL,0xFC20E6290432F3F6ULL,
0xE71B06D3CDDFDB18ULL,0xDFF00EDDD6E9E3E9ULL,0xA28E0BEFC70C06F0ULL,0x97D0CBDF0820BA0BULL,0xC2A101BFB094B927ULL,0xB38DDF0DC2B8CD26ULL,0xEA87E910EF0AF6B3ULL,0xD7CEAED0E9C8F3F9ULL,
0xCEDBEFC2231824C0ULL,0x88DEEED5E73D96CCULL,0xC2121A3623072EEBULL,0x13FA0F3C5D0A0AF0ULL,0x10064B027FD60B28ULL,0x04E7080125ED3C1AULL,0xF21B2C4926EA06FCULL,0xC70D3D0141F73B1DULL,
0xDD072DF706E83517ULL,0xCBFC48FAF5F132E8ULL,0xD5131E2449DD1F19ULL,0x03FA262D2FEF080CULL,0xE801202847DE1F26ULL,0xF0FB30F758E8FC04ULL,0xD902FA2344F8F2FAULL,0xF1F52BFE2C140AFAULL,
0x0EE620FF1305041BULL,0xF3090728F9DA041FULL,0x09FA0530260301F3ULL,0x0EF8232106112D1CULL,0xE807C3E3DDC1D9EFULL,0x3427232EEFCCEDC6ULL,0x1B09CE2EACD2E2EBULL,0x27FAE00BC027F2C6ULL,
0x29DABD1E9AECD707ULL,0x0306D528BCCE22CAULL,0xE1073608ACED1714ULL,0x42CDEF0DD7EDF5FFULL,0x13CF0D00C103E0A9ULL,0x28F82D0DB84E1C9EULL,0xCC27D721E6B50ED2ULL,0x17D50BBEC4413EBEULL,
0x462034F8A52FD9DCULL,0xCCD8A4E6E72BE0B9ULL,0x483EF34F1829DBB6ULL,0x2CF1AD0F0731B3A1ULL,0xEB45DBD6A449CEB7ULL,0xDA161EEEBD1FFEDBULL,0xD421160C5EEFF11CULL,0x01E30729361909F5ULL,
0xD516323030FC2C07ULL,0xDC09FCFE12D9FD0EULL,0x11FD1F0549E80AEDULL,0x00031723170700F8ULL,0xC9F800243ADEEE27ULL,0xDDF616020C1F1E05ULL,0x0418FC1F02F82036ULL,0xEFB64DE0CBC8DCF1ULL,
0xD8AFDC3735BCE90DULL,0xE617C8A1F59FEAEDULL,0x0EE359B3C1F5C0FBULL,0x17BEDFD339A43008ULL,0xA8AF0920469DF0B5ULL,0x0018130D05331011ULL,0x1DF71DAA3D0EBFCBULL,0xDAA0BE52BBDB1903ULL,
0xDEF64CFA0CFCFB04ULL,0x26E74A1921B8FD9DULL,0x342807E01CB6E7C9ULL,0x16C52825C7A409E3ULL,0xE8D223DBE5CEF4BFULL,0x17D5F72EF709E4A9ULL,0xCBEE322AD2AFD7CBULL,0xE1D128B8F106E1BFULL,
0xF2F8CBBA040EFA97ULL,0x0EE3BADFD7B9B91FULL,0x0CF109C39D0BA413ULL,0x2F0B46130D44E3BAULL,0x26A51FF8ECCAD2A6ULL,0x0EED24D1B32AE1E6ULL,0x1CB6ECDBE21207F2ULL,0x16A1FAAC14B8CEE2ULL,
0xBBCBC2E81326E5C6ULL,0xDEB4DD1CCD5B03EFULL,0xFE03B0EB26D3052DULL,0x0FFBD72C11E2FA06ULL,0x0B23C7301BF6B93BULL,0x0DDCC9192786E3F7ULL,0xF7E2D21441CF08F5ULL,0x07F8E31B07F3FF01ULL,
0x112ED5E836CAEB20ULL,0x222BD5E816EDC72BULL,0xEEFED2292516B842ULL,0xF807E7040198FC1DULL,0x050B00052CDCFF26ULL,0xFBFBE1EC22DAD61BULL,0x0D130A1507B70925ULL,0x1602FE0C2EDF10EFULL,
0x090DEBF6F7D4EF2FULL,0xFA1FE8EEF681E123ULL,0x0920E91A20E1ED1BULL,0xED1BDAEF22EAD504ULL,0x233308BD1A8100B5ULL,0xCB0101EB09CC3DE4ULL,0x2AEB27231F96289BULL,0x37C44BE5DCBB2FC6ULL,
0x27072205F6E427FCULL,0x35C126CAEAA1E7D2ULL,0xE027E8CD2EB2E289ULL,0xF1C4F6BC259838F5ULL,0x340CCCC2E8FA08C9ULL,0x04D364B6EAA3FBEDULL,0x0900ED0514D300A6ULL,0x315BD03BF72F5DE2ULL,
0x28C961DFCB0231C1ULL,0xFCC1642135B7C404ULL,0xB50A2E11E4F22281ULL,0x452E3A182AD44FADULL,0xE6BE0045E92535DAULL,0xD4461A3CB9BE5590ULL,0x0B0CCB210CB5E918ULL,0xEAEC01FAFAD5D62DULL,
0x1010EC0207D6D7F3ULL,0xEF161026328DF922ULL,0x0FE8D6122BB2E0EBULL,0xF3F7FEFC08E8F825ULL,0xF21708F21681DE19ULL,0xEDFFDEF51CDBFE18ULL,0x0FEEF2E625EFE123ULL,0xCCC12DE617E3970BULL,
0xE0D3F7FD69D6ED22ULL,0x353A16DC7AB134FEULL,0x0DA18CDDA1BBCF18ULL,0xB5DEF18F3DCBFAF5ULL,0x4EA930CB4031099DULL,0xFEFBE220F70D1B12ULL,0x18A34AE6E3012EAFULL,0xD5ADB6DCDF371483ULL,
0x771242C71F06F10AULL,0x6FFA21FCF40FFC02ULL,0x7FE94ECBEC1308A5ULL,0x49071FC323D71EF7ULL,0x424411FF2D060B05ULL,0x55DF1ED633F9F9FDULL,0x480740CF1EBCEE29ULL,0x0502F91A2CE7E917ULL,
0x4AE212FD1306F8C9ULL,0xC2FFBD3F24F9E71AULL,0x0743D4A24CA1BBCFULL,0x2FB4FCA9E74137AFULL,0x3E243136A121EC1AULL,0xFBABDB164028CAB1ULL,0xBFCAB12B92D2BD07ULL,0x155103A8CEA4210DULL,
0x90079350A42AB6F6ULL,0xE2C2A4CC1AB11EE0ULL,0x3DE1FFC0E1D6E7BFULL,0x5D0B51F5E6F9E312ULL,0x63E607FD293D29D9ULL,0x140FFFE6DFC5ECE4ULL,0x08F74AC0220EDCE3ULL,0x35E61A0E382D3406ULL,
0x4BDF47F43ABB07D5ULL,0x32D7450B36291E2DULL,0x40F32AE515EB2322ULL,0xBE06CAB31D7FC745ULL,0xF038E42A69B4D0F8ULL,0xFDB2003FD1CF4135ULL,0x202DEF09D923BE0BULL,0x5F1DFE0116C230C1ULL,
0xEC23DA5FC1A7BC26ULL,0x60C83C1A3D010033ULL,0x420505F3120FDBBDULL,0xB1D83574B26A24FDULL,0x2C11FCA3EFE34536ULL,0x328B3FA12F564B18ULL,0xE8ECDBEE9C47E642ULL,0xF2E1DBD00A0BC8C6ULL,
0x4CA43D9246FADA9CULL,0x3FADEF622320C310ULL,0xCF3FD8189D111A99ULL,0x07513EB4B5C5134EULL,0x18079EBE99CEB6F8ULL,0xDE13D010C3BFD014ULL,0x191DFDFC07110BF8ULL,0x0206ED16E627FFFFULL,
0x1512000FFFF9C8F1ULL,0x60F33B08322429F1ULL,0x24E22EEE3E6036F1ULL,0xFF0BF8E2DDBFDAF3ULL,0x2CF83E12290639F5ULL,0x39EC48FA3B194EFDULL,0x0B02ED0BFD03FDFCULL,0xFDF20AF8175B1FE4ULL,
0x100203112D5C0007ULL,0x17E810EAEF03F5D0ULL,0x36E210E82A5A3FD8ULL,0x0EFB230A1F6BEBF0ULL,0x4ECE14FA221C1BD5ULL,0x39B3260632683CCFULL,0x1CD60E151365FCDEULL,0x43DE2FF41FDFFFFAULL,
0x38FC0710F2121616ULL,0x1EE81E1212301DDAULL,0x17191906F7D918F4ULL,0x09060AF9160D1CF4ULL,0x19FF0EF8FA221903ULL,0x23191DE80DE20CEDULL,0x24F40D0B16F020FCULL,0x18F92A0401002417ULL,
0xFB213915CA0F1F3BULL,0x1940440C2538142EULL,0x1A12313B55F73B31ULL,0xFFEDE6F7E3152A3CULL,0x32322CECF411F110ULL,0x222F07FD1E0103FEULL,0x18E3E710ED00FF03ULL,0xE7DCE5F0E2F10910ULL,
0xFF1F2AE868E4EF37ULL,0xCCBA1CD51938A79DULL,0xB435982A30A011E4ULL,0xD7A1F0D7DC4AC3F8ULL,0xCBD6BDE4B851D650ULL,0xFECD93FFFC91C912ULL,0x26C6179FDF34B2B5ULL,0x473C23161A43BD19ULL,
0x2F38F241AEA3F0F2ULL,0x951D05AF5425FCADULL,0x0D030415EC12FD00ULL,0x0B0C532E2FED0B08ULL,0x453D270C45F3DD2EULL,0x3709E710EB11282BULL,0xE2100432FAE3E0EEULL,0x022A3F1B1239FE41ULL,
0x0B133639F53F1441ULL,0x2AF018FE362AF5F7ULL,0x0917423540EF2B4DULL,0xE72F2F24CDC30E4AULL,0xC8A625FB1F3251D4ULL,0x094BC33FE7D2A9FEULL,0x3C39679D23DB1DEBULL,0x36B8AC4725386905ULL,
0xA817F63B54C126A8ULL,0x2CBCDF97E09F22B7ULL,0x0992B4EBB8F5C4B3ULL,0x2899CC26192E44CDULL,0xA2BF2F9A06933FD3ULL,0xD8F8574A2DA6643FULL,0xC44C070708E13CD2ULL,0x64071C65B0AC062DULL,
0x97B2AC82C099F23AULL,0xE40A0CCA333807F4ULL,0x9BD651991125D7A1ULL,0xA3F6ED5A172AEA9AULL,0xC941AE0CA2AC41EEULL,0xCBBEE5CCA0B110C8ULL,0x04E710DBC204EB0BULL,0xF90EFAECEFE8E5E2ULL,
0xE7E1FEDCBCE81BF7ULL,0x4130123BDA38F727ULL,0x2C3D3B133939052EULL,0x07F3E413EFF1F2E7ULL,0x465B23482B38F220ULL,0x22452F2A7F280334ULL,0xE5EEF0E92EE4F913ULL,0x061B17142C0E0A2FULL,
0xF8E9FD17F217091FULL,0x1B0A2A26F8F80432ULL,0x3F37380E07390B7FULL,0x051F0B38CF1BF227ULL,0x20223C24FF12F80CULL,0x222E500E073AF859ULL,0x132F2025E538E722ULL,0xF6270410DE0EE920ULL,
0x14F5130EFAFF0C0EULL,0x0006000721051201ULL,0xFE0405FBE000F61DULL,0x0C1712FCF2FEE40EULL,0x0C0B1D140AF6ECFEULL,0x24241423F0070715ULL,0x1EF51801F3F8E82BULL,0x0A0F07172204DF0EULL,
0xE620412D15FEFF25ULL,0xEBD5393E3F13282EULL,0xC5113B48141EF227ULL,0x08F82612385B12DBULL,0xF8D7F9EF721A2BF3ULL,0x011733FC66542E40ULL,0x1EF534010125292BULL,0xE7F61CF4432A1621ULL,
0xD6EA1A0C4F4E3AF5ULL,0xF7EABED4E5B9114AULL,0x38D23E4AA8402494ULL,0x40371E3711D04EFEULL,0x97F9578F0701FFFEULL,0x3B04DDD6235257E0ULL,0xC155D5F93D9C9DD3ULL,0xC357B195F612C7BEULL,
0xBD57FDF8C9A0A824ULL,0xC09A41BD6331FDA9ULL,0xFF06FC35C639F707ULL,0x19EB0D21E3462306ULL,0x031F2CEE07FCF6FDULL,0xD4D12B08C604EADFULL,0x03D7290B4D3509E6ULL,0xF01130F87F16DA1BULL,
0xE7D43DEAD8491B22ULL,0xC10C1EE95E70160CULL,0xD1D2092361422B40ULL,0xCD483918E332262BULL,0xB5ED3CED55E2E3A7ULL,0xF2E0FD011A616DD3ULL,0x5860ACD26F1C1626ULL,0xF94723D24AD2F706ULL,
0x32FADB6738BDBEE0ULL,0x0BC1CB3D6CC76ECDULL,0xB5E04B5A1B67CA09ULL,0x58E55336FE13BAE1ULL,0xB0C4E11103D3CF18ULL,0x54DAF9832FBC1B9BULL,0x1ABD25B608D697F4ULL,0xA70623512B08CDBFULL,
0xF83AE944BAFA384CULL,0x22D9129731A748AFULL,0x72DBA3AABD4F5D9AULL,0xD7BF51813ACE5CEDULL,0xA32B9703CC435597ULL,0x1B02BAD9BEAEFBCDULL,0xF5080C01D9F606F3ULL,0x140AEFF94415E2EDULL,
0xF6060DF8050D21DDULL,0x09E246430C46E22BULL,0x0DE93E234A160E45ULL,0x1EF1EDFB010C02F5ULL,0x091E5A0A3052F338ULL,0xFF0518094C11F648ULL,0xE9021BE2330F180CULL,0x09EA3DF141281025ULL,
0x04103300FD41E8F1ULL,0xF81043EF0AF7EA1AULL,0xF1186E304A180160ULL,0xFA043734012CFDF8ULL,0x07F92D0E3109140DULL,0x13FD383C430DF924ULL,0x0AF8383E2F3B1308ULL,0x14FD202512FD0B15ULL,
0x09FC0916200DF413ULL,0xF50A2000F7FC1A08ULL,0x0B0E1713193611F5ULL,0x15F31E077F3510F5ULL,0x02FC02F54AFD0B0CULL,0x13F81CED0124FEFFULL,0x04F415144709F822ULL,0xF6080DEF081CFAFDULL,
0xEC17FFCB413903DEULL,0xE84439E30139F0F6ULL,0x034E310257F8E8F5ULL,0xE41E2F0C3C17FA10ULL,0xCE1137F32EF3F703ULL,0xFC4F1D0249F83B0DULL,0xD823FFEEFAED1FEDULL,0xDC1CECECF80F0BDDULL,
0xF42E0902353FEA01ULL,0x41C9A83706D6C8DCULL,0x150F4C48474418EAULL,0x129DD4AA2EFFEDC0ULL,0x18FC39CFEA3CBC2DULL,0xD83EE39B921DFAB2ULL,0xC1CEE1181AFBB747ULL,0x5DF9DEA3CBCBC4A1ULL,
0xD681AE9DF6C53C1BULL,0xEFC11DA0BF4A06BCULL,0x081AE3EF223FC4E1ULL,0x11F2FEF413ED0E16ULL,0xC54C36FD24EBF2D6ULL,0x0431FFEB0A2422C9ULL,0x0A34F7E4E80607D4ULL,0x0D38FE0C4634E008ULL,
0xDD40E4F7341BE8D3ULL,0xFB452C0B0A252FCDULL,0xC95E33054B3CFCFCULL,0x54D6EDCC8C1E057BULL,0x2ADA5D1153CDDF12ULL,0xFACA61B4063AAB49ULL,0x0E026C033125094CULL,0xEBFF3E5B9C4EE6E6ULL,
0x61F40F3E4CDEF937ULL,0xFFB3AD46360A05EBULL,0x6B200ED734EA4F56ULL,0xB7CF4FB83EB0B9D7ULL,0x5BA31AC1D8A66BBFULL,0x291E5AC848A70712ULL,0xFAC7B69822C5F83EULL,0xBD09BD539AF53901ULL,
0xC63FB7C943F24760ULL,0xBF513BA7499F97A5ULL,0xDF8FF262A869C889ULL,0x3F28A0844EFA520CULL,0x6F64C29CE065DF42ULL,0x0FC208F7DCDBDE12ULL,0xFBDF05011FEE2A0EULL,0xFC09FDE1071C05E5ULL,
0xF80808EF0BDA09EBULL,0xDB4421FB15340011ULL,0xFD22EC1B1E19FCF6ULL,0xF90B14EDEA2802ECULL,0xFE50F4E2204A02FEULL,0xFE4D09FE190FF919ULL,0xF5F4FB3B2019151CULL,0x0D27F32801400A1DULL,
0x0211F5462830F4FCULL,0x1408EB2E2404FBFFULL,0x0425F2491A4702EAULL,0xED25F01E0E0A0DF1ULL,0x0217FEED1B17F30BULL,0xF91D1A073C34F509ULL,0x0D16FE0A1E2C0A0BULL,0x083600051F20E8FEULL,
0x09250200FC0819FCULL,0x051305EF1A1CE400ULL,0x031D15FC141605F1ULL,0xE303EA061B0D26E4ULL,0xEC030EE21A24F6E0ULL,0x0D3B0E040414FEE8ULL,0xFF1DFDFE1D1D2D09ULL,0xFE13EF0EF2F71CF1ULL,
0x36E3F32E11D2E1CBULL,0x17192C2A50ED11DBULL,0x2207016E09C3E5E5ULL,0x9E2E21B9266F392DULL,0x3C2DC36DA405DCDDULL,0xB9EDF07F5E24C849ULL,0x1C45C32BC770DBC2ULL,0xE5C6D0754FD52AF5ULL,
0x33D4C46ED02DDF54ULL,0xF2C4C0D8B1CAAA04ULL,0x25F418D7212E1DE6ULL,0xFDFAE0F2053E2014ULL,0x01C6D3FAAAC8ACCAULL,0xDFD0D707C010C5E0ULL,0x02DCEA4117F4FBEEULL,0x3BCEE2B3C2360F19ULL,
0x49D0DEE9C5DD09E3ULL,0x2904F5F2D7BC23EEULL,0x2918A92D0FB32482ULL,0x30BFCBDE0DFBB4EEULL,0xF58A372BBDBA9CFBULL,0x09C022BB07D115A4ULL,0xBF9FF7D11291DDA2ULL,0xA2FD44EE44ADE5A5ULL,
0x12F6EDC59788022DULL,0x05AF9A29AD1CC2CAULL,0x36F6D724B72CC697ULL,0x501C18E52EDD1FF4ULL,0x46F023FEF6302516ULL,0x3D0A2317121D150DULL,0x062523FA08D62114ULL,0x2722180DE6F9E926ULL,
0x0CF60FDFE8250718ULL,0x12EC111400C111E0ULL,0xF9002FEEFFE409FAULL,0x30D433180B0D29E2ULL,0x35CF1ED925FDF3DEULL,0x1608F9DE1326F3FCULL,0xFEF607ED021019F9ULL,0x08EF1D03EA0200D4ULL,
0x29090DF3FB1A01E9ULL,0x2C04FE08F1240CF4ULL,0x1EF53C1628EA14DDULL,0x32FF29E603E4FCE2ULL,0x30F1FF02FF0E1FEAULL,0x24F222E308D21DE7ULL,0x221632DF1F22FB11ULL,0x5EF31D0BFB272809ULL,
0x2AF430E01CDF0412ULL,0x260B120B08F50906ULL,0x3E030C0B01161F07ULL,0x270A290112DCFAE9ULL,0x280F18131AE021FDULL,0x12F43EF7F9E834EFULL,0x2FCC3FEAEC111DF2ULL,0x2ED00406202519E0ULL,
0xFFEBF7010C2928E8ULL,0x3AFE20D8F1E701D6ULL,0x14EE2618FA310A04ULL,0x2BED1E121E041213ULL,0x30E6201429F228E7ULL,0x211821FD08DE1DDDULL,0x130F0FF00EF40717ULL,0xC096BFAF4D012B02ULL,
0xFE9DDD32A6DFE9CAULL,0xA614B8ED52A9EC99ULL,0xBA07B04B9F909635ULL,0xF4E81B37E4EFF50AULL,0xB8CFDB0423262DB7ULL,0xA6992728FA0413F3ULL,0xCD3BE5D33CC30FD8ULL,0xA237CFABFCAF12BAULL,
0xD08E3317029B61CEULL,0xE398B1B0DF29FDBCULL,0xBDD3C449A3A55BB2ULL,0xEAFB111EF7E9EDC5ULL,0xCFCE113C14A06ED7ULL,0xBA18E2E538C8F008ULL,0xB5F5C22FC3F7DDDAULL,0xBD34F1DBBBED07DDULL,
0x31EF22EEABEDFF03ULL,0xE6E5D60D2F1CC5D4ULL,0xB917BBF7F22DEF06ULL,0xFDF4FF121EC9172AULL,0x0DEBF3F8F92506E2ULL,0xFA2C0CD423CC3A1CULL,0x1928F5D42CD6CCF9ULL,0xB61ED0DCF8081A17ULL,
0xF42AE9BCC6F4FDEDULL,0x3616C6F419133701ULL,0xAA0F1ABC0AC8D4FCULL,0xBFEE992800B7F338ULL,0xDF21375DF80E3046ULL,0x26B0F60D46899CEDULL,0x3D28C342369D40C3ULL,0x4C812D380EE301A2ULL,
0xFC3193D388373827ULL,0xD50ADE9C12FA139CULL,0x9CFC85C51DB82D1FULL,0x1E1D320DE7FFDB34ULL,0xFFED0014011AF63AULL,0x090BFF2F1115243DULL,0x20F11329E8180507ULL,0x142419EAED07D82EULL,
0x0A140BF11E262133ULL,0x0B1E2524DBEFF320ULL,0xF3FB300D0DEE04F3ULL,0x06180E2A42ECF511ULL,0x2627021600210718ULL,0x1EF4240FDBF9E71AULL,0xEDEE13F7CB0FEE06ULL,0x03271EF30A17FB25ULL,
0x29160123F3060E22ULL,0x1E181AF005231D27ULL,0x0FFD15001125EE36ULL,0x08232B073905EB0FULL,0x18020224280ADF26ULL,0x1B03090DE0100001ULL,0x0DFB1921EE20F809ULL,0x28373F31FE12FE2FULL,
0x1F05ED1BF92BFE0FULL,0x0C1221F2EE02F00BULL,0x17161E0C38FC103BULL,0x0B061128EB081512ULL,0xFBFCFF00130E0E29ULL,0x2A010B3444FC0D23ULL,0x291B001AE518F737ULL,0x082520FC1825E919ULL,
0x0C2226F6CF2E2D22ULL,0x0B0A05130E0DE629ULL,0x2F0B180BF7F3E71CULL,0x20E9F22CF10C1B13ULL,0x2F1C2D1E2E18D9FBULL,0xEA0A2C034314EA18ULL,0xEBF12B203224F1F6ULL,0xCEBF48201DD4F917ULL,
0xB73BD9031D232AC4ULL,0x28C62E258EE81646ULL,0x12B42FB5EF0EDF2CULL,0x0FF6C80481BCAB4CULL,0xDA4DB516A129C6B4ULL,0x9A26F1D5E8C52A28ULL,0x022535E08F044141ULL,0xEA02B21A18090709ULL,
0xE9201020AE5B1DBEULL,0x3DCACE22ADCFEA31ULL,0xD705D823BD2726C4ULL,0x25681C0BAB14D01AULL,0x40E5F2C3D9543BAFULL,0x505E4DBA86E8684AULL,0xEB46E12E464D5F0DULL,0x43D6D0D21AF8FC03ULL,
0x4E3EAC58B564FC17ULL,0xC9DE25D7013237AAULL,0x22EF19CF455619EEULL,0xCAFFBED562F8ED12ULL,0x08F51B1A470B26A8ULL,0x2816C6FD5202EEDFULL,0x3BEEE20449353BDAULL,0xDE09EFC9DCFCED0FULL,
0x37FFBD14555540EEULL,0xDEEAF5F37FF1EEF8ULL,0x8B3ACAFB2FE2B0E6ULL,0xAE4444944BEC5DF5ULL,0x384FE3ABBA96E1C0ULL,0x0FD24019BFCA180DULL,0xCD4651C4E5BAE2A5ULL,0x460DAAA6095C14F6ULL,
0xA345DDD1EE05B0E3ULL,0x2B1D3D3129292DA1ULL,0x48F997FF2BFD4E8DULL,0xE9F2391E102A0314ULL,0xF0D40D165518F21EULL,0x03E337F9171EF204ULL,0xFD0A040A422D0618ULL,0x14EA29237F3E0011ULL,
0xE3DD160F190AFA2BULL,0xE80104FE2129F117ULL,0xE7FD2DFD260CF0E8ULL,0xE0F82A0FEBF41001ULL,0x17070923F12BFE03ULL,0xE5E4F40A50FFF201ULL,0xFDF7FFFB000D0FF7ULL,0x0F0704132627EF09ULL,
0x03FB1DFE7F3BF2FBULL,0x0DEB1D2162F911FAULL,0x15FF301419400621ULL,0xDF18281B60200C21ULL,0xE4003117562706FDULL,0xFEEB2429F722F6F9ULL,0xF2F21129471BEB15ULL,0xFE163D316803143AULL,
0xF2F411150012FBFEULL,0xEFFD02FF7F1B1B17ULL,0xF4FC26FC7D271F28ULL,0xE6180721FD2005F5ULL,0xEF12150F4B401816ULL,0x05FA1C242027FD0BULL,0x01121C0EF109FA1CULL,0xE7F429125134FC06ULL,
0x0DD7FD1724E21FEBULL,0x06EE1A212158E813ULL,0xE80D10F17F0F0C00ULL,0x09E6181D59F6FB05ULL,0xF4F22BED1556EC23ULL,0xF70E081B5E3DEA07ULL,0x0105270B282E2D29ULL,0x04D74BBFBBFEC5F8ULL,
0x19FD07DE2BF71B04ULL,0xACC4CEF5383DB0CAULL,0x3526BFF03901C6C8ULL,0x0EF2C22348FD29E3ULL,0xF6DC4D35CAC2CA1EULL,0x02CBCA0CBC3B10B5ULL,0xD8E4AED819F2C94AULL,0xBC55BCC21625D8A6ULL,
0xC792533DC6C73C12ULL,0xE2C0145AD1D3FA6BULL,0x431757E310C5A916ULL,0x0DBC0E42DCEE0FF2ULL,0x47DC150C1FAB1849ULL,0x0C08086D04B80F42ULL,0x1CA225EB22404AD2ULL,0x09B06B60DE3EA601ULL,
0x33356138DDDF0810ULL,0x1BFC330811B62CC0ULL,0x4223EBD1FDEEDBEFULL,0x371ED3DB1FE52ACCULL,0x2D14D1E305D008BEULL,0x2E0FC8C1CD2B26F9ULL,0xF30321DBC1BAB91AULL,0xDAD82FEAC6EC060DULL,
0x04210504D213FE01ULL,0x250D0523C900F809ULL,0xBECAD4E04CE9ACC6ULL,0x18DC2E0897E3AB05ULL,0x4218290F19C10227ULL,0x0BFADB21CF15D1D3ULL,0xA713CF86D7181CFFULL,0x9D3C15B6AC121319ULL,
0x47041BF40DCEB2CFULL,0xCEDD56A0A524C9B3ULL,0xD28545B0BE2B5E08ULL,0xD41BF7141C2C0504ULL,0x0F3EF3DE323014EDULL,0x113116EC07FF1B16ULL,0x080B05EF1110E609ULL,0x01310019291704E4ULL,
0xDFFE1A0B1E04F4ECULL,0x0D2BE7EE0522DF06ULL,0xF62616E30B2F1EDEULL,0xEF2B0D0E15EC1F12ULL,0x020B15010D230B0DULL,0xDE09F3FC08FEF5F0ULL,0xEBFA19E803EEFD14ULL,0x020A0DE1091213E7ULL,
0xFEFE07DC1F2211F2ULL,0xDD310BDC29290FF5ULL,0x1430F6D307070610ULL,0x1039F5E3151B1ADFULL,0x0335F3F9250DF9F2ULL,0xE82209DE2AFBF7F6ULL,0xE8360CE3252C0DE7ULL,0xE5520207372212EDULL,
0xF93409092320FCEDULL,0x01060BFE1A1C0110ULL,0xDF1CF7F7330219EEULL,0xE81918DB311AECFDULL,0x012000DD03140210ULL,0x0B3E02FE0D2E03E7ULL,0x121EEFCC3EF7EB01ULL,0x143906DB12F515F1ULL,
0xEEF2DDE2F3041FE7ULL,0xF01FF7EC3820EB00ULL,0x1838FB0DFEFC06FEULL,0xD215F5000703F0F2ULL,0xD433FE021706111AULL,0x0D25F105F2FBF5ECULL,0xDE1FE5E4340F0AD2ULL,0x40F9E32E452AB5CDULL,
0xB4CAAEF707DB1918ULL,0x0043CA29DAAD314EULL,0xE5C9259EBC061AB7ULL,0xEC2A3A2EB91C1C1EULL,0xCB2637AC13B9F2D7ULL,0xB5B4A1D5E8C4D533ULL,0xB5C3D5990BEB12FEULL,0xF5B7051E06D7BBAAULL,
0x3000050908E905E3ULL,0x1BF60DE7FA2EEDF8ULL,0x2BF904F8032816F8ULL,0x13001CED15DD11DFULL,0x20EFF9FB18130F08ULL,0x19FC2D1007381604ULL,0x22FC110213D8F2D4ULL,0x33FE26F80CEC260DULL,
0x19E729E0FBEF1FEFULL,0x32C229F30AF026C9ULL,0x310508020A1418FEULL,0x38371A16F85BF005ULL,0x55EB2CFF20C7EE01ULL,0x311306FAF701121AULL,0x2C2316151E14FB2DULL,0x3DE32CEB1CDC13C5ULL,
0x180A16EE13E6F0FBULL,0x271325FE05F4F8FAULL,0xEE03C119EBFEA7EBULL,0x00E5B8F1FADBCFE6ULL,0xBD0205CEC0FDDCECULL,0xAAE6CEDBFCEDF6D4ULL,0xD9BCDDFADAD7D8B6ULL,0xD904CE0CE2D9F0D9ULL,
0xE50E1B1AF71DF2C7ULL,0xBBB80842BD001E0CULL,0x1B06FF302040F5D7ULL,0x41D414DB01E412DAULL,0x3D1B35DCFB2A09D3ULL,0x17DB0EE215451AD4ULL,0x08F028FD04C22B19ULL,0x202434D6060305F2ULL,
0x01FF2B04074B22E8ULL,0x14D72BE3F3C80407ULL,0x03221AF7201605F4ULL,0x24F707EFFB281BE2ULL,0x56DA4EF432061D1AULL,0x04E5272CEE0DF0F9ULL,0xD104D30C1914FE38ULL,0x14DA42E6F80911E5ULL,
0x0CE307EA250AF9FCULL,0x1026F209E036E208ULL,0x0EC70CDE031823C7ULL,0x06D802F0F0362214ULL,0xECF1FDF80842E5DDULL,0x0D040DF610E4F5FDULL,0x31ED0CF9EC3822F7ULL,0x27DB24E30A4F1806ULL,
0x29DC2E080BCE0606ULL,0x0DE62F121DFD1BF9ULL,0x25E22EEC1F3010F2ULL,0x0FE72BE305A821E2ULL,0x330224FB21FBFAE1ULL,0x19DCF711EB09F5FCULL,0x0EE1C4D047FA5348ULL,0x23EA273C11F4B9C2ULL,
0x4DA7BD9ECDE50723ULL,0x621E94F402BF29D1ULL,0x4500239C8F4EF7C8ULL,0x943A35CCB51FF603ULL,0x14F6E8C76625B73AULL,0x4FD5F1FB5B36DC93ULL,0x18CAFBE3A001D9D2ULL,0x25C60CEE14D81FE1ULL,
0x25E72BF0F62FF40FULL,0x1D0E37F9FC492CFFULL,0x3E0BF9F418C414DCULL,0x09EB1CFF211B24F8ULL,0x07F21E001119F5F3ULL,0x08DF03E420D511E0ULL,0x130F11E813E822E6ULL,0x2AE20A1203FB200CULL,
0xF7020920CB1EF30FULL,0x1921001CF810F2F3ULL,0xF60D25FFEE1CFCFFULL,0x1A1DFF14F318F9FCULL,0x140F170C05000914ULL,0xF02115120C04EC0EULL,0x0212141B011AE71CULL,0x04FF14130BF0F52BULL,
0x010E0EF82A10EC1EULL,0x0225101E042CDD28ULL,0x18F105F9FD21F60CULL,0x151406FFD6031C18ULL,0x271D1639E821EE22ULL,0xFBF1FFE1F21B0004ULL,0xF00507F7EF22FE1DULL,0x1F02F62AE627F224ULL,
0xFEFA160E28ED042AULL,0xFE19FDFC11130207ULL,0xE2CDBBF8F4C1000CULL,0x83C4C5C3A3810AAEULL,0x8EA3A1CBA7B5E007ULL,0xE69BEEACC5B3D3DBULL,0x0CE2BCD210E82CE5ULL,0xF1DF8FCFDCF4C2D0ULL,
0xDF0FC50CA820D41CULL,0xC406AF1405D03FD6ULL,0x24B5A7F5A31DE0F5ULL,0xF1261C36CDF20CFDULL,0x28260614052E1329ULL,0x0FEC242DE0260431ULL,0x1C1D0EFDDA052127ULL,0x1A0E0220221D0030ULL,
0x1324FF180717F020ULL,0x272A1730272FE02DULL,0x051F31302416F83CULL,0x1BFCF309481BDF22ULL,0x243C2E23F3431726ULL,0x091FF2DCCF0F2BFEULL,0x0003ECE8C00219D0ULL,0xEBED0915F8042438ULL,
0xF414F600E7E10C19ULL,0xE8FA0ADE0E0D01DEULL,0xF81418482109214AULL,0x19F0360B4217261CULL,0x05EC0F261FED0816ULL,0x1D28FA1DE4201CFEULL,0x0D0EF419F9160720ULL,0x131CFC0702130B32ULL,
0xFB0426F4FF08FCFEULL,0x0217F222FF0E0818ULL,0x1EFA06231610FB0AULL,0x2124272DFD0C04FBULL,0x13EC291C00FEEC1EULL,0x0FEE17241102EA28ULL,0xD9A5BFFAC6A20E49ULL,0xDDD19BE226142256ULL,
0x17DFF4D6FD300FCDULL,0xC4AD44A3B4A44D3BULL,0x9C1120E1C90C3A2FULL,0xD839F4C1A5DFE7F0ULL,0x47123F2EBBD512C0ULL,0xB6F8E2EC431FCD0CULL,0x0D4D5383D5F31149ULL,0xF4F42324F31B2114ULL,
0x0A1704120C0E1715ULL,0x26260007FB18FD30ULL,0x2516F021E5FB0921ULL,0x050B25121A051D1BULL,0x27261C0F22F7DE1DULL,0xF1FD161BD8101301ULL,0x132424FC040215F9ULL,0x1123F5FA3B260B20ULL,
0x0E16F511F21F0611ULL,0x0F06FF1847FFF9FCULL,0x0B04FAF901F2FC20ULL,0x09ED1A000A0E0304ULL,0x16FA1F0F7F130D18ULL,0x07172A1F4A0505FEULL,0xE3041202013506F9ULL,0xEFEBFFEB38261B20ULL,
0x0518251921030DF2ULL,0x080BFD25E20C0802ULL,0x11F41EF91FFE0A2BULL,0xF805F4184A1214F4ULL,0x13091827F03CFC0DULL,0xE8F7FF054D45EC15ULL,0xF0FC251B7F150E03ULL,0x0F1AFF24FF1C0815ULL,
0xEEF5FBE3341D121CULL,0x13170CFA4D090C21ULL,0xF228E9FCF9A7FA93ULL,0xDF12EEABE804DFFEULL,0x31D0C2D010BC3EA1ULL,0x40EEAFEC06E9CF89ULL,0xC4C48B90FF9A29CDULL,0xE3F3D09AFCE613E5ULL,
0x021FCDCCFB99E3A9ULL,0xC434ADEB00041DCEULL,0xC0C7FE0A1B22C7DEULL,0x17F6FCF3F008F21FULL,0x05E4390857011302ULL,0xF1E5F42C431CFD1EULL,0xF2F508281C2AEA0FULL,0x08E721107F120DEEULL,
0x1D0E1C09672CF122ULL,0x00FE09281848DFEDULL,0xF0E2F70D573A191FULL,0xF80F19023015E6FDULL,0x0F0A154D0FE8EE0CULL,0x1A2DF12E10D8E006ULL,0x2104D001F2E721E6ULL,0xE0042A2D2F14FF0BULL,
0x1F181AEA5F070DE9ULL,0x1E070E0142FA2504ULL,0x0C1B003B17410028ULL,0xE32A18017F10DA2DULL,0x16212FEC3B20181EULL,0xFCEEF423FB0905F9ULL,0xF7EF0605610EF022ULL,0xFB0AF6052D2AF40DULL,
0x02091A181813F60CULL,0xF9EE07F17C381202ULL,0xF2F30AFF7F15FD1FULL,0x05F01A05F43BF01EULL,0x10FAFAEE3C1BF7F4ULL,0x04FD09F64917E80DULL,0x9A46E06DCC942002ULL,0x111CA025C6DEFF52ULL,
0x3EE05BA4E681AD27ULL,0xF10FC13E29D9ECC6ULL,0x33ECC0B69FBF0F85ULL,0x36A6B23FB11B412FULL,0xCA4A94E408B4D59BULL,0x5139BA4A3199EDAEULL,0x1C5F49D504D91658ULL,0x0CF0290FFF290813ULL,
0x15DF2C0D4D07EE1FULL,0x0B02221639F90F13ULL,0xE4EF1F161A220917ULL,0xF9E813F77F2D1E24ULL,0x0A07FD0A622DFB1DULL,0xE4E201F5D813011AULL,0xDF09071C5937E22AULL,0xE1FD0711350AF624ULL,
0xE51DED04251AEDDDULL,0xF6030B080F2201E2ULL,0xEA0F17E507FAFCE4ULL,0x102DFBD8160A17E5ULL,0xDC0001E522F7F402ULL,0xEA13F00219FD060BULL,0xED31F20A0710ECEAULL,0x0312EDEA021CF6EBULL,
0xEB2514DB2A0805F2ULL,0x1164FAE24907FDE7ULL,0x0B16180727080ADAULL,0xFD2004051D05E115ULL,0x033FFCFF1904E90BULL,0xFC2019EF24052604ULL,0xE832FE1C051CE7E2ULL,0xE24A13FC2E10ECFBULL,
0xE1390E042B02EDF2ULL,0xF511F706111FF217ULL,0x2C8F1430EFAABFC8ULL,0x3DFC1EDAADE03B27ULL,0xEEB7E7CFCC0BE107ULL,0x4196D6CBB1B433E0ULL,0x23E3F80CD3D505F6ULL,0x0914C63DFFE80F3DULL,
0xE3C03E0DEBC7F6C0ULL,0x2FECD719C6FECA1AULL,0x03B63CBB1CB222FAULL,0xEB311CF01FFDEBFEULL,0x041BDB0FFE321711ULL,0x0834FA0D00091A17ULL,0x101906ED39270618ULL,0xD71510D81B151EDEULL,
0xFC1F1D16081414FCULL,0x053CE4CD382AF6FAULL,0x0F1018F1180300FFULL,0x093F16ED2EF21BF7ULL,0x113414012B000806ULL,0x091D1F1C1513F20EULL,0x2FFE273700D2F0DFULL,0x081AF1E40D0EFB18ULL,
0x2CE7FD10ED0A1BDFULL,0x0CEBF20611FA1713ULL,0xEF47FFF52015F418ULL,0x001D00D32C230B0EULL,0xE339FF201114FFFBULL,0xFD13ECF52A0AE6DCULL,0xDE1918E32D1E1AEAULL,0xFB2F0DD90F0E04DEULL,
0xE31D0CF02925DB0AULL,0x100709E911080CDFULL,0xE429FA0D220CEAE5ULL,0xF128F4F622F4E803ULL,0xEA01FEE2FC041009ULL,0xF922DFF82A10EC01ULL,0xD35A60B554E63EF4ULL,0x034DA82C0293E828ULL,
0xF1DE41342240EF53ULL,0xEB3C6B2FA0D7F114ULL,0xEE46B0A10AE5D335ULL,0xC70D9B3559A55CB6ULL,0xDECAAD04481737CDULL,0x64E802B4BD2A4DEDULL,0xDE3799DBF481DB3FULL,0x0C14F8E60D10D8DBULL,
0xFA2CE8EA171B1AFFULL,0xF53505E920FEF8ECULL,0x0325FCED05040BFFULL,0x132AF8F4050407E4ULL,0xE1FCE200FC25E3EEULL,0x123507E02D14F2F1ULL,0xFB0EFE0F0709F014ULL,0x06270FFE2F06E2F9ULL,
0x36EF13FF1AE9F3EFULL,0x16E915F91B18FDF0ULL,0x030401E5042C1DF0ULL,0x28DBFCF907FD04F2ULL,0x08F5F9EA161519E6ULL,0x02FD15F6FC34180DULL,0x10D713FBFFCE0A03ULL,0x2808290614F8F1E0ULL,
0x1CEC211219161D04ULL,0xD20BE8EFCCF3CCF2ULL,0xEB1AC9F8C912E312ULL,0xDA0D02F6E7D5E7FFULL,0x010C18FB1AEEFFEDULL,0x2713120608F6F915ULL,0x0A220C100DF11AEEULL,0x6FF860EE46E63BE5ULL,
0x5C1056DC381C550FULL,0x381752DF39155CEEULL,0x72EC59DB110724E7ULL,0x1A1B53CEFD0630D8ULL,0x091C0FD8081D1B0CULL,0x2F1B4BE5FBEBF4DEULL,0x131E24D83105151EULL,0x1A0F180E232037E4ULL,
0x57F743F21BD6F510ULL,0x24E511E7041D27EFULL,0x491B0BDB2BF72819ULL,0x44F81BE0F6DE25FFULL,0x31183AF1FF0E15EEULL,0x1FF73AF81C3219DCULL,0x3DF9151210D1FE0CULL,0x21292600FFFB2114ULL,
0x2DF226EF162922EFULL,0x36F9160A0ACBF314ULL,0x21210A131DDC1328ULL,0x290C14EDFCF7FDF5ULL,0x751F59F805C6F807ULL,0x16F3440720320D12ULL,0x31D71B0B2657FEE3ULL,0x352E24D8F311F5CCULL,
0xFF014C070E260920ULL,0x343743BE37661EFDULL,0x5E232C0AF4D632E3ULL,0x4BF548FA2CEE4BDBULL,0x380D0AEB1DDF43D1ULL,0x40F719182DCAFEF8ULL,0x18E30105FE381D18ULL,0x34FD0D1218541EF2ULL,
0x3B071E1803FCF211ULL,0x430106091AE8001BULL,0x28300FED1D3FEE1AULL,0x2DF1321629AA31F6ULL,0x24152A001CCF1820ULL,0x03F1111024F42FF9ULL,0x25FB1CEF2810EFF2ULL,0xD408E6EBCDF7BD0BULL,
0xBF1FAC04BF10D9F9ULL,0xF7FD09F415E3FDF9ULL,0xA1EDC20DC5DEE8F0ULL,0xBB00A9FAD4E7EC10ULL,0x2BDA50FD51194BEAULL,0xF9FA1CF72BEB3E0AULL,0x1E0637EE380D5006ULL,0x33E9270219EAFCF9ULL,
0x05150B0607440E03ULL,0x17EA0CDC15531012ULL,0x24CF261103C0F2D8ULL,0x28EE00091B05221DULL,0x35EF10F200110A06ULL,0x09DE2BEF09C315D3ULL,0x09EE16E816D100FAULL,0xF7F426FB0FF017E2ULL,
0x0A21F302FC1C0C20ULL,0x10F00CF6F9030903ULL,0x10141010EF06F708ULL,0x11F7140509EDF502ULL,0x1F20252113130027ULL,0x060D18FDF81AEE10ULL,0xF7130912F6ED19F2ULL,0x160F1AFA3A21F115ULL,
0x1DFBF3F9181AF6FFULL,0xF3FBD9F5CBD60CBBULL,0xD00AE4C0DB0215DAULL,0xE2EF00E2060AFFD2ULL,0xFA14E202F2E3FB19ULL,0xFBF40FFA13ECF7FCULL,0x2F261E171111E923ULL,0x45203956FE260749ULL,
0x392B1B3F1E2B0D3DULL,0x201D3B1B052AE637ULL,0x02152041D8010C24ULL,0x03242B01CDFE0729ULL,0xF9FF0BF6EB0BF31DULL,0x08381818C3F8E814ULL,0x06F92634DB161620ULL,0x23290614EDFD0B16ULL,
0x383AFC50E507D80BULL,0x23370B391B361B33ULL,0x1802273A3C09F13CULL,0x01FC2022DA0B181BULL,0x0E211B0EF5FEFD32ULL,0x09280F243A2B183DULL,0xF10DF5FCF503072BULL,0x2210F7F80B1FFC1FULL,
0xF5230B162B22F42AULL,0x1BFA0B2AE71AF90FULL,0x0E0A08FD0820EC0EULL,0x14FF0CFE4813F60CULL,0x45121C22054C1733ULL,0xF324272FD5F7D119ULL,0xE6475201214B0329ULL,0x303F3723FE23362AULL,
0x3FE63313E732F84BULL,0x2F28F43D482B390AULL,0x3A081918E842EF2FULL,0xF6F4F634F1111017ULL,0x3640145420F0F95BULL,0x0F15FE38D119DE23ULL,0x05252B2AF532F6FDULL,0x23EF2800000F0315ULL,
0x021C281BDD02F419ULL,0x050D0DFE27231F11ULL,0xF92633232F16FD2FULL,0x2EED312E0D23F0FEULL,0x2528F6FF0915F726ULL,0x12260FF955F8EF07ULL,0xFB230250FA24F5FFULL,0xC7D1F0C6FEE10DCAULL,
0xC3F4F7DFF5C500C4ULL,0x110AED44E012FEEFULL,0xE0C0E2B8D5BB14B0ULL,0xD9D8EBC60BD4FDA3ULL,0x2931007F13590D2CULL,0x281AF72C1108070EULL,0x28171B43161C090EULL,0x24250C2DFC10FF03ULL,
0x10FA25F7DAF0F107ULL,0xFE1B23FA181E13FCULL,0x0312242409F8F621ULL,0x200300200A02E808ULL,0x22F62712410AE3FEULL,0x041FFD0D0300EB17ULL,0x23181AF7180A0D1DULL,0x1D0B0C1555F9FE16ULL,
0x00EF13130A0B0B1CULL,0x0E0D0E1A4F04FDF7ULL,0xEA021B1BF6E9E807ULL,0x111A20102B0B100EULL,0xE80F28F47F150309ULL,0x0E1AF6174E010014ULL,0xE6EC180C212216EFULL,0xE8FF23185E251618ULL,
0xEFEF000E2C2BF701ULL,0xEA0CC9E1DB011A02ULL,0xF6F3CFDCF0E0E311ULL,0xFBE914DBF9E70EF2ULL,0x10F5FEEF0A200CEAULL,0x0EF9180027EFF121ULL,0x1FE81921E021D731ULL,0x03DE47124A28D92DULL,
0x0B060B436F391602ULL,0xE6FF402703170418ULL,0xCF2A4342F60B170AULL,0xE40C1E1F5AF6F00EULL,0xD108F7234C220C3AULL,0x140426EC1A4B2EEDULL,0x05E337237F410011ULL,0xF20D3D28551D16EFULL,
0x1DE3451A0C44F402ULL,0x09012C1B71411EF9ULL,0x11DF3FE94F292FF1ULL,0xE9F31F0F1513FA27ULL,0x14E61C0A680C0323ULL,0x04FC210B3E11FD2EULL,0x06F3FE032436F511ULL,0xECF020067F2E0601ULL,
0x0A1C1B1B6130F50FULL,0x0E0DFC07F923F7FCULL,0xF81DFB16262CF1F9ULL,0x00190BFD2601180AULL,0xE925470FE60DE810ULL,0xCFF11EF460070A11ULL,0x22CB141531D6F7E9ULL,0x10054D22021B2F3DULL,
0x070E5131752EF240ULL,0xCD1542EF4232E002ULL,0x06F9391C026FD631ULL,0xFF0936436142F33DULL,0x0D0B13405926F023ULL,0xF5EC1F2EE411F812ULL,0xF9E228146E361DFBULL,0xFCDF10323519E431ULL,
0xF523352A3B15201DULL,0x20241B0D7F4F251CULL,0xFB1617FC521FE51EULL,0x0D120A0BDD261DEBULL,0xDEEF38FA34350601ULL,0xD62028E31E1E1326ULL,0xFC14E01DBFEE03DAULL,0xEB13E6E0C5CC01EAULL,
0xF014D4C7CABA0AE9ULL,0xEEF5D02B85BCFAD3ULL,0x1015C1E18E8FF7C7ULL,0xF214DFD093BBFFD2ULL,0xFAEE1231ED2004EFULL,0x0CEF0BF6BD0507FBULL,0x00F02108C70EF004ULL,0xE4030426211E05F5ULL,
0xFD01030A4903E6F9ULL,0x0A1511214D0D0F22ULL,0xE2FEF9102C1DFC1DULL,0xF0F20B1E70191927ULL,0xF4FE02F57F2F1A0BULL,0xE2EB23EBF223EB01ULL,0xEE0002E9463AFCF6ULL,0xFC18FC142B2B1AFCULL,
0xFFFEF6F9F6221AFCULL,0xFC0D09DE2315EDDEULL,0xFC090C00041CF905ULL,0xF41BF9DE100FEDDFULL,0xF70B0AE60018F4F7ULL,0xDFFFECFA1D18F4F0ULL,0x0718F7E40EF309F5ULL,0xE8270EFD0412ECE9ULL,
0xE40FFBE3020A1212ULL,0xF7DC02FFCBF71B15ULL,0xEACFEB1FD0FAFBF7ULL,0xE00AF016F812F41DULL,0xDEF925061C1DF10AULL,0xF5EB27E6270B08FEULL,0xD639EEFEFF31F4F5ULL,0xD97FF0DE670E0A10ULL,
0xF16718D93A3E2C0EULL,0x0359FC0541500C0AULL,0x1152FF030E2AFBDAULL,0xFA30EC03132508D4ULL,0xE534EFF72B39E8ECULL,0xE43511F6FF05FE14ULL,0x18F8F7F1232431D8ULL,0x124729E2FAFBDDDFULL,
0xCA41E7E841FACEFCULL,0xE553DBCA3B040C0AULL,0xEB270DC0323EFD11ULL,0xEE2701DD2CF706E9ULL,0x060DF0080317F006ULL,0x0B2EFDFA0C24FFEFULL,0xED2CEE0F0202E504ULL,0xFD0903022814FAE8ULL,
0x132EECEC2E26E9FCULL,0x0C16F8DC2C20FB16ULL,0xF92603F0091E03EFULL,0x0B28EE00F918ECE6ULL,0xE26A25B85E06F729ULL,0xDC370D1A521702ECULL,0x042E1AFC54FDFAC9ULL,0xC03D2F08172707D5ULL,
0xD212DEC64539171FULL,0xD44427F82A27E802ULL,0xC47FEA012416EA1BULL,0xC93712E24B2A0DE6ULL,0x0C101FCB0B0BD80EULL,0xE63BF40104FFDBE6ULL,0xF006E4E6121113FFULL,0x0346E406402DE5DEULL,
0xE030021304F61BE3ULL,0xFF1B0CD8242C1E03ULL,0xF82F0001FF29E41CULL,0xD63F19DE1C12EF19ULL,0x0600F907352FF01BULL,0xF511E2F131F813F0ULL,0xF93403EBFFF20CFDULL,0xF1EDFFF4E7E9F0F6ULL,
0xF6BFFA08C6E4150DULL,0x0736EE09FACEFDEBULL,0xFDC40904C2DE0D04ULL,0xF3BEEA00BED8F600ULL,0x047103E432200104ULL,0xEE20F0FA1804F0EDULL,0xFE38EDF1412BF306ULL,0xFE30E8D71903160BULL,
0xE01401F11AFDF1F4ULL,0xFF0300DE211E0E00ULL,0x0533F0D51923FBF4ULL,0xE708DFFF29220BE0ULL,0x1002FCFF0B100BE6ULL,0xFD2FEE0016080909ULL,0xF212F3020C0A0208ULL,0x0B10FD06FA0915FFULL,
0x2FC5AEEFE8E9D825ULL,0x080903232AF60F42ULL,0x343348FAF22E115CULL,0xEBB9DA07E6E6E2E0ULL,0xFFEBB5EA040D1BD0ULL,0x300C22FEF515001AULL,0x00E6D112EC0DD801ULL,0xD7EE27E22C110BD3ULL,
0x051B44EBE32D084CULL,0x002A26F9FE13F504ULL,0xE715020FFD0206E7ULL,0xF2FD060A0AED03DCULL,0x0A3C53F3FE1BF107ULL,0x16251FFAECF9FF09ULL,0xF3170E09F6EC0CF0ULL,0x152F2706E726F810ULL,
0x141CF60AF1FC0B19ULL,0x0E0AEAFBF6FF03F6ULL,0x20167FF7FBEFE826ULL,0x08E962E5061AE3EFULL,0x061453ECF8F7FF03ULL,0xF11B35E4EF0FEA04ULL,0xF7001BE9EF12FD16ULL,0xF212290EF105E716ULL,
0xEAFC0B11F6ECE0E9ULL,0x080D1102161117F7ULL,0x01421A080B091012ULL,0x03167FFE0215F002ULL,0xF6094EF8EA15E91BULL,0x0CED41FDEC16F6EEULL,0x1E4162EDFBEF05F3ULL,0x05292C0D03F30917ULL,
0x0A2C0E020212F6F8ULL,0x00293E0BFCEF0916ULL,0x062C1DFC0DEFF1F3ULL,0x01131DF3EEF2F415ULL,0x05F166EF000AFE08ULL,0xFAF153F4F1EC09F1ULL,0x050B2111D7E8F2F8ULL,0x12007F03EE1DF10DULL,
0x0E513616F6F017EDULL,0xED1616F106EB07F5ULL,0xEF064F09E308F4FDULL,0xF46317FADCFC02FDULL,0x193BE7E9F007EBFCULL,0xF81357EE07030514ULL,0x13182E01FA11EDFDULL,0x0AF717F9F9FA0EF9ULL,
0x03046309F107F5F9ULL,0x0545420DFA0FF909ULL,0x03170C10ED14FA0CULL,0x151D4905E5FEF90EULL,0x153F39120304F0F9ULL,0xF9380911FB03FF00ULL,0x1B416CFAEEFC0418ULL,0x153030EF0D0DE803ULL,
0x182C2CF5F10DE717ULL,0x1F5B44E9EC0D04FBULL,0xFD453011FC07031EULL,0x07340AFDF412FBFFULL,0x26432FEEEFFA0B04ULL,0x1323FF110FE2EBF0ULL,0x0B12FAFCF8FDFBF4ULL,0x12F21701F917FB14ULL,
0xF206F20922EBE7F8ULL,0x05D791F0F81116D3ULL,0xE90B14F308F70BFEULL,0x2113E9F5F70C1C09ULL,0x00E581EB26EBE0E7ULL,0x042224150C0506EEULL,0x1C09F8E71B0119F5ULL,0xF013B8061523E4FCULL,
0x1B11120C38330905ULL,0xD41208E83DF0FD0DULL,0x0B0E40053C0FE928ULL,0xE21D0224340501EBULL,0x07F4DFC909F4E917ULL,0xEF0B111F43F72A06ULL,0xD507EE03E23008E6ULL,0x0AF41F0DF93115FCULL,
0xD60559471D332D2CULL,0x0312F214F7F70107ULL,0xFBF3F9F5F3F9F5FEULL,0x02EBDFF1EBE711FEULL,0x101B131007E90C06ULL,0x0D0CF910F7FA07FCULL,0xFC05FE0BF6EAF6F4ULL,0xF430291227FAF5F5ULL,
0x0D2314160E030BEAULL,0x0E15F70B02EBFDFCULL,0x08FAF50F0AF90906ULL,0x0AF1EB171FE0ED1AULL,0xF6FB0BF4F1ECF8EEULL,0x10190E0320061001ULL,0xFFF2F5EBF6DFE4F9ULL,0xED14F21F14F8E909ULL,
0xE503EFF6F1EE090DULL,0xF809FAFB1E02F2F3ULL,0xE8F1242025FFEA0AULL,0xFC0320161BFBFCFFULL,0xF9FA01FA1B011102ULL,0xEB07ECEF15EEE610ULL,0x110C20F90B0C010BULL,0x1014FDF60B0EFC09ULL,
0xF11CF0F910EEFBE9ULL,0xF7EF14F102FD00EEULL,0x071100F510EC07F1ULL,0x0106F5051CEFF5F8ULL,0xEDF41B08F7011BE7ULL,0x000A090E0CEC12E2ULL,0xEA16E8F11D0EF7F2ULL,0x1101F10421E917E8ULL,
0x051215F204E5F8F5ULL,0x0B181A0F06FB0ADAULL,0x15102117020302E9ULL,0xF8FF0F0A2414E40BULL,0x0100F4FD0DF000F2ULL,0x0108FA001805E6F5ULL,0x0D17FEFF0F0A00FEULL,0xF3FFFD1602E9EBEFULL,
0xF8FD060B1C080AEFULL,0x121816F9FCE80009ULL,0x0E15FC16FE03F0FDULL,0xF705260A1AED0AE7ULL,0xF8FC01F81AF7FC0CULL,0x0D10FEFF16EEF8EFULL,0xFE13140609F7E8FCULL,0x0526FD1D1204FF06ULL,
0x0515F3FE1909DEF3ULL,0x080F23002BF402ECULL,0x0524271CFFF1E3F7ULL,0x021C220517FB010EULL,0x0E1827FB0AECFBFBULL,0xED091AF52CEDE904ULL,0x11060AFBFBFC0A11ULL,0xFFFBDC10E31109F4ULL,
0xEC1712E116E7FAFCULL,0x150BDE0FFF16E021ULL,0x060EEC030AF5F822ULL,0xE61FF60C030FFE1CULL,0x180B0A081C06FD05ULL,0x0E18FEE710030713ULL,0xFC1212F4FD2114F1ULL,0xE4F20EFAE017E512ULL,
0x2EE81CFB3005280EULL,0x28E3FC1711DA0716ULL,0x5B2631E460EA3C64ULL,0xF907DEF1E1E3ECCEULL,0xCF08EAF1D208EBCDULL,0x3FEF2D012D140C01ULL,0xD0FBFB07E40FD90DULL,0xF1EEEC21D9D722E6ULL,
0x04DD1E0D49D20B13ULL,0xF5F6081A07F80D0DULL,0xF603E512EAF4FDF0ULL,0xE00CE106E90CEDF9ULL,0x220A271F13181C29ULL,0xF9F6FF23FA171519ULL,0xFCF4030F07050111ULL,0x2CF8321E2B093E15ULL,
0x22FA12021C080D24ULL,0xF605FCF907FA0A0FULL,0xF2041C3516E80002ULL,0xFF081628FEEBEC0EULL,0x18FF0019F5EF0A01ULL,0x20F11FF71B1A2B22ULL,0xF815F5F8F3E8ECEBULL,0x1F051EEFFFEDF9FAULL,
0xF6E91902ED05F915ULL,0xF7F2EEFDEDEB0B19ULL,0x0CFE1619F8FE10F7ULL,0x0015172011040B0AULL,0x04160D011503F511ULL,0xF800FC0205FCEFFAULL,0x001510FE021A21F7ULL,0xF0F3FC121B04F3F2ULL,
0xF1EA17FF13F31610ULL,0x1CF4F7001BEE0B0EULL,0xEFED180915030901ULL,0xFA071B17150014F9ULL,0xF6110CFB0AF619FCULL,0x1DF21A26FF07E913ULL,0xFE12F6211D09F20EULL,0x1012EEFD05140716ULL,
0x20FBF50D222D0306ULL,0x0BFB081414131911ULL,0x1E0A00EF122120F5ULL,0x0014F609EF04F7F6ULL,0xF7FEFB05140EFFEEULL,0xFF0F112D0F08FE0FULL,0xF4F0F70A11FA0DF8ULL,0x060CF415020EF80BULL,
0x1910F70710171B07ULL,0x15F71B101D05071AULL,0x0601FD2C040213F9ULL,0x1411FF1907221701ULL,0x10041A0F1D080E1CULL,0x0905191212141602ULL,0x0706081815123008ULL,0x1C120644110C1412ULL,
0x0C01003A0FF707F8ULL,0x03F9201B26074102ULL,0x18EE193823180B25ULL,0xF112F12317F8F403ULL,0x1C0F282514081402ULL,0x06FFFB1225110507ULL,0xF1F5F81108FAEBFAULL,0x15140BFAF7E8E0EFULL,
0x1AF3F00D190C1AE3ULL,0xEB1CFEF4F604DAE7ULL,0x15F7E11B161DF71DULL,0xE2F6F6FADFEC07FFULL,0x110CE2050710101AULL,0xDFEDE701ED26D711ULL,0x20EF1F1909FA0B20ULL,0xF0E4E2FFE12E010CULL,
0x0A273A0E03F6D817ULL,0x0B0C350B34F50B07ULL,0x22295B5F7F49D83DULL,0x2468E1EADAFC0FFBULL,0xCA42D5F1DDEDE6F3ULL,0x305A04222F181E1AULL,0xF0B51306CA12E0CCULL,0xE9FF06E1F30CE807ULL,
0x04332E2B58280444ULL,0x0621F205ED06F7EDULL,0xEC07EEF2EAFD0701ULL,0xE016D9EADCF209ECULL,0x19F6130E101E0B1AULL,0x10C20C15130AFD17ULL,0x06D1F0010302F90DULL,0x277F2F2129210614ULL,
0x1408271B101B0612ULL,0x0EF60801FDF805F8ULL,0x22FA1E3913FE1E20ULL,0xEBEBFEFDF6F418F5ULL,0xEF1202F7EC0D2208ULL,0x22FCF51D19FCEF22ULL,0x13F4160804EF131EULL,0xFA050FFDFC15020EULL,
0xF21BF720EF06070FULL,0xF627FA1C0118ED04ULL,0xF606F6F9FD111B00ULL,0x1A1D052C121EF9FEULL,0x09FE1320080F17F2ULL,0x05200614F9FE04F6ULL,0xFF0C0D11FF1BED05ULL,0x101B1A1F1FFD040CULL,
0x0001FA08FC080318ULL,0x0323FEFF06031215ULL,0x080707081DF2FC10ULL,0x151712FE1E171EFCULL,0x122BFE17F8FA0614ULL,0xECEA051DF4190B21ULL,0x07BEF817F7FF0A20ULL,0x1737F325F3F41122ULL,
0x1FC902271BF9F710ULL,0x05DC2129F10FFAEDULL,0x1C101D0316F9EB1DULL,0x1804FDFDFB1EFB21ULL,0x19CE1A090F10F7EEULL,0x170F1618FE0A1B14ULL,0x0ED60510FA0D2E1AULL,0xF9CBEF11EC081BFCULL,
0x051D09190616FB06ULL,0x01E408180B07150CULL,0xFFEA110211F8030EULL,0xFD7F1C0E170D3C11ULL,0x0C2E1E0807082DFFULL,0x1235050D0FFB1E04ULL,0xFD2E151917302210ULL,0xFBD40F1D022720FDULL,
0xE7DEFD1C09F024F0ULL,0x200B281D0B0FF7FDULL,0x00B6061C1A0B06FCULL,0x03D919F7151F1811ULL,0x1B7F1B192C2B021DULL,0xFDFD050CF812DD1EULL,0xF3151B1902170AEDULL,0xF223FEE616080AECULL,
0xEA230E0BE0F3E406ULL,0x021CF8DDF911EEE2ULL,0xE10610FEEE0BE315ULL,0x21FBE521ECF500F9ULL,0xF514E1DEF6F6F10DULL,0xFFEBE2F40CDDEA13ULL,0x07F4040B0E0DF80BULL,0x1F02E6F8EDFDEEF3ULL,
0x11137DEBE4FBE619ULL,0x00243FF60B14F419ULL,0x210F38ECE60D0E04ULL,0x257751FA15220A06ULL,0xFC593E1B0F1CE702ULL,0x0A1C22F3E1F5121CULL,0x127F4F0CF505FF18ULL,0xF0400C01FFED0B16ULL,
0x1317EA09F00D0618ULL,0xFD07DBF2F102050BULL,0xE9DFDF0C11FA1208ULL,0xF0E5E6FF17EFF600ULL,0x0201F4FD1310FB0BULL,0xF7E6DFF9FD00F701ULL,0x08E6D80FFB0005F3ULL,0x0B2119F9F31A1114ULL,
0xF80013FC0205FD0BULL,0x0F201CF10B1BF0ECULL,0x1DC3411AC0A03798ULL,0xFC1DEA19D1A03D91ULL,0xC3492D3AE1A3B913ULL,0xB6C7160C15BBAE2CULL,0x31DD50FF1553B2B6ULL,0xA23567F127343DB0ULL,
0xBCD27FDBC330BFADULL,0x9941593F2C21C138ULL,0x40D4E441C10046E5ULL,0xFA0771E9221ECD0CULL,0x3F0129F9FD360D24ULL,0x411C190DFB4FE279ULL,0xCC051F252BCDDEB5ULL,0xFE1FD9171ECFFA25ULL,
0x180A23DEDF25D933ULL,0xA97FD60A14C8FCB0ULL,0xD21DC4F50AD3FF9FULL,0xFBB3CD0B17F50801ULL,0xC721EA01FBE4FFDEULL,0xD5EEE3F915F3FAE5ULL,0xEC0208F315E70C07ULL,0xEBFCE6F214FB0CDFULL,
0xFFF3FEF9F809F2EDULL,0xF9F824100F00060EULL,0x010A030C0B1F06F4ULL,0x1905130A081D1519ULL,0x192A330A1731F430ULL,0x0E243709F41BFE0FULL,0x190E1F08FE0FF710ULL,0xFD08140000F40AFFULL,
0x03241207FBFE0706ULL,0x0D12FE0503FDFAFEULL,0xFB0AF30609FBFFF4ULL,0xFB1801F803F90107ULL,0xFE14EC0304FBF9F3ULL,0xE900F20102ED0AEFULL,0x240A6E1DC1F206F6ULL,0x0A0940F3CB181F07ULL,
0xE30722E0D4E9E704ULL,0x041D770FC6FAF423ULL,0x221F6412E7F30823ULL,0xFDFFFBFEF5E4E1E6ULL,0xE82D6BEACC172105ULL,0x132938E7D3F9090AULL,0x2B5B3602011A0D2BULL,0x0C46F518DDDCDE13ULL,
0x214FFE0A1025F525ULL,0x402A1E30F54CD476ULL,0xAF010E0FD7CC16BBULL,0x1B18F9F8DF0EE7E6ULL,0x230C0BDAFFDB192CULL,0xC046CA08E818FAE3ULL,0xC77F9CDB13D6ECCCULL,0x09F9FAFC2EEB2624ULL,
0xEA190FFD0DFFEE06ULL,0xF91F01F009F3EE05ULL,0xEC0C05032210EDF3ULL,0xE2192405FAFA0C14ULL,0xF509F906F90603EBULL,0xEB1C0605F808EC06ULL,0xFD0922F4141101FDULL,0xFA0C1C1D1F03FDE0ULL,
0x08FDFDF7EE0AFDF7ULL,0x04FDFBFAF113FB14ULL,0xFE05F2FAFEFE1104ULL,0xF1FBE90604010E10ULL,0xF710F6FFFA171111ULL,0xED09FBE3F919F90AULL,0x01FA02E4FA111114ULL,0x0A12121CFA080106ULL,
0xF0FBFDFF05021615ULL,0xFB070B01F6020DF3ULL,0x073FA4A7BA2E3DD8ULL,0xF41E2DCFAAFA07C0ULL,0x021633070C1D3FEBULL,0x354BD02DB4DCD034ULL,0x41E632A2FE59460CULL,0xF2F73B9E4F41AC29ULL,
0xBF390915C723DFA5ULL,0x0535F00BE1611CABULL,0xF407CDD50CED471FULL,0xEAAE14E6D2D0F8DFULL,0x233703FA0A2003DEULL,0x1961471D6BF31CE2ULL,0x26C0B69EA40710D5ULL,0x25E7EBF6E825E20DULL,
0xD4E4070B1DFE00F6ULL,0xD0D094C5A220F308ULL,0xE3C5B2E6B308CA1EULL,0xD7D0E3BBF5E827DDULL,0x08D6F5E1CF080611ULL,0xF0F9E0FFD3F51215ULL,0x05F2F90BF4F1F601ULL,0x05E4EAD6E9110BFCULL,
0xFC09EAF6DFF40C11ULL,0xEEF2FA110B070B0CULL,0x0BF70001EC10FAFDULL,0x00001F05F80C04F4ULL,0xFF1F292713F1F501ULL,0xF81B19150B0100FFULL,0xF7151319110602F8ULL,0x070801FDF90304F8ULL,
0x090B150009FB00FAULL,0xFAFF02000B02F709ULL,0xFF04F9FBFE030306ULL,0xFFFB03FFFB04FAFEULL,0xF9FDF7F0F50A01FCULL,0xF8F2F7FCFA060202ULL,0xDC24021D2E030FEEULL,0x1A1304251F10EA03ULL,
0x1B06E901EAE9F1DCULL,0xEC1C25EDFC06DDF1ULL,0x170C07FCF313F4DFULL,0xE30C0E26FAF6EBE7ULL,0xDDF701E60FF6FBFEULL,0x19F629260C080AE9ULL,0xFFFF122429DBFDD3ULL,0xFFC12008E20F21EEULL,
0xF31913F70D0C38DBULL,0xD92378EE07272E09ULL,0xF4BBF9D9C4D14ED4ULL,0xE3E0E9080DD2292FULL,0xF6080BE129ECFB30ULL,0x02CFE80CDAE90626ULL,0xF4FEC0C6F5FB4327ULL,0xFDC2F8FE191744EDULL,
0x231E05011A012806ULL,0x00F01324F41DEF1AULL,0x01F60908FF18F9F9ULL,0x06FA110B172B2C0CULL,0xF41E09F9FD250C1AULL,0xF6ECF10813F5F717ULL,0x21F4F114132F22FDULL,0xF9160DFD0E1E201BULL,
0x05E51BF31317F4F8ULL,0xF706EE05F8EDF6FBULL,0xF71402F7ECE5E10BULL,0xEBF8FBE8F6F004E7ULL,0xFAFFF90805FC0705ULL,0xE3EFF7FD08F202EDULL,0xE51101FA02FC06F2ULL,0x00FE1B11FAE914FFULL,
0x010006FE06F307FAULL,0x09060BF507030311ULL,0xF6AE98C8B7AD953FULL,0xF4BEC71CE5EC908DULL,0xD842B917C3DCA403ULL,0x9D12F12BE2C5242FULL,0x1CB44EE547A54D29ULL,0xE74899E44DF00306ULL,
0x382E9827ACC6BFDEULL,0xD0181BA8B40D9FA2ULL,0xFCE4FC410E0ACB18ULL,0xE323E5BBF1D8C6C8ULL,0x39180EC230F30303ULL,0x0BD35BDF24E4362BULL,0xA6E6CA19BFCE9ECDULL,0xF82CCE07F629D0D9ULL,
0x112836CAE7ECE925ULL,0xA709BB089C0DE2B6ULL,0xADF2A4CAE016ACE8ULL,0xEF2CEB1DDE01BAF8ULL,0xEF05E2EEDAE4E9EDULL,0xDE09EDF7EDF4F3FCULL,0xFB06F2F8E901F2FEULL,0xECFDF613D0FECEDFULL,
0xE8F5FDFAE6FBF0F0ULL,0x10FBFBFCFA05F2FFULL,0xFE020B080B02F60DULL,0x17ECF70D0EF80B1BULL,0x180720EE180B1F30ULL,0x1600100E0F0B1A16ULL,0x1106101215FE1012ULL,0xF700F71C090BFE05ULL,
0x0808050610041112ULL,0x07070D02020A0905ULL,0xFA08F20206FDFFF8ULL,0x06F6060003030704ULL,0x03050202FA02F5F7ULL,0xF503F7FFF3F9EBEEULL,0x16031D2E1122290AULL,0x1D0024001410F300ULL,
0xF314E82209E50222ULL,0xF1E90B1DED1D0C0EULL,0x13EFEC1210EB0106ULL,0x11F8110109FC0227ULL,0x211A07F4FEF81906ULL,0x0DE9EB23EFF80FE9ULL,0x1B15042AF009F21BULL,0x1CE0071BDFD3C416ULL,
0x07FB00D2EC06F52AULL,0x4FDB330D09E90B08ULL,0xECEBC7D9ECD5E6EEULL,0x06ECCCE7082FF601ULL,0x15DDFFCC10E4D206ULL,0xEFE90908E305C2F8ULL,0x1BEDBD15F74BE2D8ULL,0xD7F1D5D6CBE8F8FCULL,
0x090A2513F913180EULL,0xF1F20C2B0A242620ULL,0xF2F9F228F8041821ULL,0x11140D07051DF217ULL,0xF2E20D17F816FA03ULL,0x1F0512181303011AULL,0x1E5D0C0A1C0730F3ULL,0xF4161D0FFFF003F1ULL,
0x0411FD25EC050F06ULL,0xFFFEFB0500F2F2EFULL,0x06F8EF0B09F2FA0AULL,0x0FF305E6EFFC0308ULL,0xF022F8EE09FF0FE2ULL,0xF8270004E60008EDULL,0xE629EDFBE6E416E6ULL,0x017F0A100D050C14ULL,
0x0D5F0304F71C03FDULL,0x083E0F1B091A200FULL,0xBD0702C3E6A537B1ULL,0x951198B3B5234DAFULL,0x85E7C30B2D9E5335ULL,0xD6B925FBFA23D2A0ULL,0xD71DBA00F5BC2736ULL,0xB2572853B2D80CCBULL,
0x4FE825DE37C8E09DULL,0xA1360F1B2733EFC1ULL,0x20FADC9C2C91C9D6ULL,0xCBDBCF02CFC6FEB0ULL,0xF8C320125222120DULL,0x42BE694E7A492B08ULL,0xAFD2D4E4E7D9F5BDULL,0xDDD10F05ED1FD208ULL,
0x42DD2D2118F61102ULL,0x9B0595AB8AC53489ULL,0x9CC5FCC2CDF0DEA2ULL,0xFDC9F8BADACECAEDULL,0xCBE6E9CFE3DC04E7ULL,0xD0DDD0F2E1E20CCFULL,0xE7D9FCF4FAFC00F0ULL,0xE316EFD8D8FA03D8ULL,
0xF4FDEDE0DDE5EFE8ULL,0x0C310418EC0A0303ULL,0xF07DF1F0EF06080FULL,0x0C7F1917FEFF27FEULL,0x1B6D2A25172F2927ULL,0x140C1D181A0F0B0AULL,0x06D90914130B1813ULL,0x00CB0007F4FB0CFFULL,
0x113F11061504FAFFULL,0x07E510070F0DFD04ULL,0xF3EFF700020200FDULL,0xF87FFA0900F706FEULL,0x02F8FDF1F5F2F5FAULL,0xF2F5EFECF1F0EFFBULL,0x1F3A251828141000ULL,0x19E5FC3A232BE903ULL,
0xF6CCF7FD161E19F1ULL,0xF92DF41AFA160E1AULL,0xE9DDFB0E0524F918ULL,0xF30F210627F108F2ULL,0x1768280816090011ULL,0x1728F227FEF92D20ULL,0xF87F1B182806171EULL,0x1532FFE8F2D622E1ULL,
0xDFFD38201D34E40CULL,0xFF2533413457CC1CULL,0xE6FC0FC7EAD8D6D5ULL,0xCA4EF8DDE5BC220BULL,0x113CD65ADF07DFCCULL,0x1B51FEA7EFCE0B21ULL,0xE217EFB8F3B7ECF9ULL,0xEAE9E80026E016E5ULL,
0x22331F0C06140B13ULL,0x0A0F0803FBF7F90BULL,0xFD03F005F9E5EFF1ULL,0x15333900FA1CFD1DULL,0x131E030A04F40DF2ULL,0xF51D15F5FEF5F6F6ULL,0x183B26FC0B20020CULL,0x100DFAF1FE03FB10ULL,
0x070B05FEF201FAF5ULL,0x303651380ACFC2E2ULL,0x9404E6B82FA42A0DULL,0xF5A6C44FA8393AC2ULL,0xF43CC7571F97DEF0ULL,0xFC3A3BE0F3DEE5A6ULL,0xD006FA0CF71413A3ULL,0xE4CDFB32CCA4C5F7ULL,
0x8EEC0CA6DAF411D1ULL,0xE029F6222440DC33ULL,0xF9D4C1F52BECCCFBULL,0x064A2737D5C003AFULL,0x08D9F6E7D4D4E421ULL,0xEFD8191D01E0E4D0ULL,0x124F2A09CF07FA14ULL,0xC828AF0E2F21DA20ULL,
0xE6B7C2C7D5F8FEFAULL,0xDC3A19F8D6E8E119ULL,0x0C1AE5FC18EB0EBDULL,0xF30E100FFAFCFCF1ULL,0xFF270C061315081AULL,0x2B3B0F120934FE35ULL,0xEA21E3FF0AFE04F2ULL,0xE43CFF0CF2F002E8ULL,
0x181F090101FEFC10ULL,0x0C3ED70405FCF9F1ULL,0xF92BD40509DD1000ULL,0xE916F1FC14EB04EDULL,0x05122FEFDC11EEF0ULL,0x131837EBFE1214EDULL,0x0100F406FE18EBECULL,0x14F9400DED19F016ULL,
0xF32F5F16F0F1FDFFULL,0x1510F4F1EA0C0501ULL,0x1D3A3BF5DE15121CULL,0x077F25F3FCEBFAF7ULL,0x14330A09FD0CFDFBULL,0x09257F15DD19EAFEULL,0x071459EBF81CFD15ULL,0x0123410309141119ULL,
0x170B2CF705F6EB06ULL,0x03223E09F5F6F0FEULL,0x1B2512F4F812FC14ULL,0x0E06360AF9F7060EULL,0x140B15F2EFEB15EEULL,0x091803F5E9070802ULL,0x0CF443EEE5F4EAF1ULL,0x0AF939EC05F8E903ULL,
0x1AE60C11E1E804ECULL,0x1F036DF3F9100B15ULL,0x19124D14F418F1F3ULL,0xFB1B1F04111911EAULL,0xF62E7B03DFFF1016ULL,0x1E453511F9FC030AULL,0xF536EAF7FB08EDF3ULL,0xFBEAEDDEDCFFE900ULL,
0x121FD8F5DDC2EEF3ULL,0xDF524A21ED01EB13ULL,0x150E1215EDDB1AFFULL,0xE92EF40119EEECE5ULL,0xDD603AEE08FBF8D5ULL,0x314A7FFEF130F203ULL,0x285037FF0E1115E4ULL,0x1D622BE5F0F9E7E5ULL,
0x0218160D1EFBF400ULL,0xF915FEF60607F706ULL,0xFA02E2E8F802F6FCULL,0xFE15191008EEFA00ULL,0x0213F4170AEF0BFDULL,0xF5F9EEFEF0080B07ULL,0xFA0D200B1BFE0B00ULL,0xF3100D0E11F009F9ULL,
0xF3F3EF040C01F9FFULL,0xA83E1A3DEC29099DULL,0x26BAD64CA21A013BULL,0xAF18AED798E7B10EULL,0xEED80302170C580BULL,0xB3C703C4E0B3D9BBULL,0x4B32D9CA52A40DC2ULL,0xCA5131545229C4F2ULL,
0xAEB8C43DC83051D9ULL,0xD848009513ABD5E6ULL,0xE90DACE3CBE10ECFULL,0xE007EC13D1D6A710ULL,0xD5E9F8C8C1F1E6DDULL,0x30F50AE0D6D0FD20ULL,0xEE11B9CCD30681F3ULL,0xEFD7E1CFCD220BFEULL,
0xCF02DAD91320030BULL,0x3403B2B6E5C8E909ULL,0xF8BA0DEF00172A10ULL,0x00E1E6D4F6FD041BULL,0x07E9FAE7030AFA04ULL,0x1216450C250A1901ULL,0xF0E2ECEFED090FFEULL,0x0BFAEB0105F40C03ULL,
0x01DB15F711F01401ULL,0xF911F9F202EA1FFBULL,0x12FFE5DDD80A1806ULL,0x06E2E6DC020E13F1ULL,0xFDF60B10070A12E2ULL,0x0002FD0003130FF8ULL,0xFA07090C150AE7F6ULL,0x0F0E00F502F3F8F6ULL,
0xE8FD0A04F8F90DF4ULL,0xF312191E14F5FD14ULL,0x00041FF6FC040AECULL,0x0C0D0203070A0504ULL,0xE61FF60401ECDE0FULL,0x130B101D14FDF1E5ULL,0x1613210C20E9F3E2ULL,0x140EFE051C130E03ULL,
0x11F803030DEF01E2ULL,0xFEF1FCFE1DF204F5ULL,0x09F206FFF40DE9E0ULL,0xFEFFF314F504F5E0ULL,0xEC06F7F6F6FC0DF9ULL,0x0517050B030A09EAULL,0x03EF211911EA07D9ULL,0x0EF3F60BF8EAE6E1ULL,
0xF6EBF2F7FAFDF8FDULL,0x03161615FA10E0EDULL,0xF602F01F180A12F8ULL,0xE8FF0719F60FFF00ULL,0xEB1E22F81F13FDC9ULL,0xEE100B141A07FEEFULL,0x0DF6F1FF1AEBF4E3ULL,0x27F116E5DADFED03ULL,
0x10D4E8E6F2E4FEFBULL,0xF6E7E81DFF1409E6ULL,0x1ED8EDEFF2E4ECFFULL,0xEF02EFDDDDF7FE00ULL,0x0BE01DCFE11219E9ULL,0xDE0F202E35141FE6ULL,0xFFEF1428060A18E1ULL,0xE6F12315F5FE19FFULL,
0x13F8131D21061D08ULL,0xF4FEF70A0C0CFAF8ULL,0xE2F3E202E303EDEDULL,0x0B06100C260F1923ULL,0x11F8001217000508ULL,0xE80CF60CF606E8E8ULL,0x1F071215180B1E26ULL,0x04FB1AFF1AFE0E02ULL,
0x00020209F01708F5ULL,0x52D602A74ADBB537ULL,0x2D4DC41999270817ULL,0x1C3FD13EDCC71D17ULL,0xD4D6A88A1FD9233EULL,0xDD5BDAE51CFE33E0ULL,0x1A2311A9A8FF1927ULL,0x1E1EBCDEDCACDEA3ULL,
0xD9B9C721F636AAACULL,0xC2E9B1B1B50BD124ULL,0x05DFC9F9BCFE031DULL,0xC12625F312CCCB1EULL,0xE8E9F8F31B150CD6ULL,0xEC31E6F0BB13B1F0ULL,0xFCFFD6E9CADEFC0DULL,0xB80813D3D5270726ULL,
0xE0E2F3E9BDD1CCE5ULL,0xECC81A0AF306D2DBULL,0xF8E0E3DC1ED91528ULL,0xDEEFD881FFFBF0D4ULL,0xEF05FA840A0C05F0ULL,0x1F081BBD26062319ULL,0xF4070B03F5FEF4EAULL,0xF90907EEF2FBE8E3ULL,
0xF612ED02E6F8F7EAULL,0x05040112F4130C07ULL,0xDF0AE6FCFA0904ECULL,0xEA07EFFBE7FDEBDFULL,0x10EB1C15F10A0C01ULL,0x13100921F201070AULL,0x1118F3F402011719ULL,0x18FC150CEE01F211ULL,
0x000B1B181BF1081DULL,0xF2E9F024F20C0800ULL,0x140A141510F810EDULL,0x1BF10E1E13F6FE09ULL,0xF2E81BFEFCFAF716ULL,0x1603FA141419221DULL,0x05FA0F1F12F104FDULL,0xFD11062211F8F418ULL,
0xFDF0FC0C18161EF8ULL,0xF6011BEE0B0B04F7ULL,0x140505FC04071016ULL,0xEE001906F4EDFEEEULL,0xFBF7FD1205E7F20BULL,0x09FB140310F8EC0FULL,0x17151E10EE0A1920ULL,0xFCF41E0E12FDE4F2ULL,
0x061813FE1A011210ULL,0xFCF1EE08070E2EFEULL,0xF9EF04032402ED03ULL,0xFD0CFA0821130F07ULL,0x0A19160316372E11ULL,0x16132600F321FB0EULL,0xF9E51A15021810EDULL,0xF709D634101FE70DULL,
0xE1EDD7D5F0ECFDEDULL,0xF11701CB20180AFFULL,0xED0716221D180FE3ULL,0xFAFEF827EA15CB13ULL,0xF91DFCC6FADF0117ULL,0x15142B4C2A0C092BULL,0xE00CFF3803EBE6DEULL,0xF3EB0F24F906EDD9ULL,
0x1F1B201E11270621ULL,0xF2F4FD0F0B13040EULL,0xDF24E7F4ECE40DE2ULL,0x07091F1615270D16ULL,0xFCEBF610FBFAFE0BULL,0xF9E8FFEFE4F901F6ULL,0x0A7F241F1523FC17ULL,0x1601112007160519ULL,
0xF219FCFAFB0703EEULL,0xB125449ACBD4C6B0ULL,0x121307A6A2F02FA7ULL,0xF2FA3D1600BA10C9ULL,0xF3C5F2ADF1E43023ULL,0xE63F49F7BEB90BC6ULL,0xC2F9B9139C27F111ULL,0xE3E7414981AB0DB3ULL,
0xB5E701F7BEEDAEF3ULL,0xEFCCD4F9EC220FBCULL,0xFBEADF12B8FCB9E1ULL,0x06DBD20AFEEE002BULL,0xC41BC6180DCBE0E5ULL,0xC8FADEDEE307C724ULL,0x07B825FB1D05BF27ULL,0xB8D2D015E3D6FC09ULL,
0x02D9FDC3E70E0E0CULL,0xFAE31EDE1115D726ULL,0xBBE519FCE4CD04C1ULL,0xE9EAFEE2ECE51AE4ULL,0x05F611040905130BULL,0x09FD2624410D0613ULL,0x01ECEBF700F3EAFEULL,0xE8EEE3FA05EDFCEBULL,
0x0FE6F9FC1EF3F1E5ULL,0xED01EE02F4EDEEF0ULL,0xE0F500EFE8E3D5E7ULL,0xE402F6EE0DFEF7D4ULL,0xF3010A041AF61CF0ULL,0xF4FA200F161AFCF7ULL,0x180C1A0B06F3FCF5ULL,0x1D2F11FFF7130C16ULL,
0x0FEDF014FE1AF2F0ULL,0xFF0813081A04090EULL,0xFB3902292115090AULL,0x0DFEF408F5F705F5ULL,0xEE04FCFD10F3F6F0ULL,0x0D10020A1AFDF81CULL,0x03F61B21F30E02F6ULL,0x0FD90E0606F5180AULL,
0x0421FB09F704F4F6ULL,0x0EEA0C2614FE1018ULL,0xF306070010FCED18ULL,0x0DEA02030113F611ULL,0xFEE8F90300FBECFCULL,0x1316111AF6F0F4F4ULL,0xFE1F162A221A1BFDULL,0x04FCF6FBEA091016ULL,
0xEE00EEEA130E1FF6ULL,0x09310B17111E0CF5ULL,0x16E0190BF918010AULL,0x17FF11FEEAF01912ULL,0x1E7F150A17161706ULL,0x15380429211C2B0CULL,0x20490E1F1B212D21ULL,0x0ED80BF40315E1F4ULL,
0xDDD2FCCE16CDD612ULL,0xDBCA1814E3E9F2EDULL,0xE511E4E51508040EULL,0xD2ED00EEE4DAE1F7ULL,0xE5F80821EAF3E814ULL,0x1C38F84E1F492FE7ULL,0x0C26183F1EF51114ULL,0xE01AE33701E312EDULL,
0x10347FFCF514F311ULL,0x0F2437F0FF06130EULL,0xF6001209060EFE06ULL,0x0A4738EEFB16EC18ULL,0xFE430CF303F4FA19ULL,0x1A0C010EE10F0F18ULL,0x0D3853F6DE09F0EFULL,0x0E3118F0F6FD100AULL,
0x1809E00FDEEEF6ECULL,0x09F77FFB0014EFFDULL,0x070F57F0E3F1FF15ULL,0x0C1508ECFDF2000FULL,0x061366E9EEEFE603ULL,0x134D51F9E810FA08ULL,0x0929F8FC1AF801F4ULL,0x130A4C0F03F4FCEEULL,
0x0628390C080DF50FULL,0x1613CDF4EC06EFEDULL,0x074D7F0FFC230A1BULL,0x1F30350D0415F627ULL,0x200812FCDF100912ULL,0x02453A0DFEF60F0DULL,0xF523070A00040415ULL,0xF300EEEBF4F90119ULL,
0xFA2214FA03E0FAE9ULL,0x002BCA10FA05FDFEULL,0xF118E10206DEEF0DULL,0xF72B4313F20AE3F0ULL,0xFE2B2508E8F9ECF5ULL,0xFE0810E90EEDF808ULL,0xFC1F7F0DF21902EFULL,0x1E3946170A010C06ULL,
0x06FF0901E8FBFDF5ULL,0xF43141F0EA02060DULL,0x013F0101F2EEF309ULL,0x1DF9D4F10AEFF5EFULL,0xF7133A00F301FB13ULL,0xF8001FF7010505FCULL,0xFDF602FD14F6FDF6ULL,0x01072AFBFD11040AULL,
0x0A1521FA11030710ULL,0x02F7F7FFF70BF5F8ULL,0x011133FBF7070411ULL,0xFA3B2DFC0901FCFFULL,0xF723FAF80802FAFFULL,0x10115311EA050514ULL,0x0DFE1BF60FED09F4ULL,0xEC0B2CEF12EDF2DDULL,
0x1F387605F216F31EULL,0xFA5E4B0FFA1707FDULL,0xFF2C44FFEEFEFC13ULL,0x2A4240FB0007EB05ULL,0x224827FC000BEE02ULL,0x023603F6F017FC1FULL,0xE6CBF80CF5E5FEE3ULL,0xFC1B06F4F3020FEDULL,
0x0618250B0E1405F7ULL,0xDCF5180912F70BF6ULL,0xF728100BF70EF0F0ULL,0x03103705FD1A0919ULL,0xFAF725F7F9FDF6FAULL,0xFC2927F7ECF9F0FDULL,0x14293312EC0B0502ULL,0x06167FFC02F9F701ULL,
0x140749F20609FDF8ULL,0xF8F20DF0ECFAF604ULL,0xFB31350CF2FD090BULL,0x092803050FF301FDULL,0xFF0F0B0202FC0B0CULL,0x14343DF4E709F003ULL,0x092C12F6EB100616ULL,0xF527DF01EFF012FCULL,
0xF30B1E1812E8ECF0ULL,0x140507F71406F101ULL,0x020F1CFE0BF4E5DDULL,0xFA14031106EF03FEULL,0xF618160EF5F2F607ULL,0x0F00130913F20BE7ULL,0xFD150312F5FBF2EFULL,0x0CFF011507060EF7ULL,
0xEE01F0160604EFE5ULL,0x141602F3150D18FCULL,0x1514151E1313FEE2ULL,0x1B1F03FD1AF4F405ULL,0x081E1C0303F318F1ULL,0xFA1F171B0F0DFE11ULL,0x0311EE140011F21BULL,0xE5F9F3F1050AE9E5ULL,
0xF51EF709F9ED0701ULL,0xF61CFBF4FC1206F9ULL,0x0FFC101B0AEEF3E9ULL,0x021927041CFD03E0ULL,0x140702F619F30CF2ULL,0x06F3170FFDF2F8FAULL,0x120500061BF30AF3ULL,0x080A17F912EF10FFULL,
0xF2F5E602FFF80104ULL,0x05EE05F9F30CF5F7ULL,0xF6F40301F30C0108ULL,0xEC16FFEDF112FEFEULL,0xFB040B11F50FF5FCULL,0x19ECF511EE030AEBULL,0xFAF2FBF8F6E5EAF9ULL,0x111412F6F6070705ULL,
0x0F08E80C03E60B00ULL,0xE7F5FB17F3E614E2ULL,0x17F600021EF5E514ULL,0xEB1D0BFB1A120F15ULL,0xF30D00011408FFFFULL,0xF2020CF804F0FDFFULL,0x0D07080C10FFFC0AULL,0xF40407F602F404F1ULL,
0x02FDF7FB0708FF00ULL,0x0F1301F705F4F105ULL,0xEE0C0714160BF800ULL,0x040D13100104110EULL,0x070814020FF0FAFAULL,0x04FBF90BF3FBF5F0ULL,0xF5F8FDEFEB0BE30AULL,0xEFE7DBFAE300F110ULL,
0x01272C2607E5E307ULL,0x0609FC1307F000F4ULL,0x19FB06040904EA0AULL,0xF611311D11EBE4FDULL,0xF51B281C10090500ULL,0xFB25041326FDE309ULL,0xFEEDE9D5E5FCF700ULL,0xF4E6F9F8EBEFF30BULL,
0x100102FBF90603FCULL,0x07E8E5E5F906FD0EULL,0x060312FE05FDF9F6ULL,0x0F1020FC040D0509ULL,0xFEF0FFEAEFF6FD0DULL,0x081117FD15FDF3F6ULL,0xF60E290A0BF7F9F1ULL,0x06FC0412FE01FEFCULL,
0x030F050F0B0E11FCULL,0x030D01F60003FA02ULL,0x03130CF6F8F512E7ULL,0xF0131A0BF804F0F8ULL,0x0F08F50E19EEED0AULL,0xF616FA0613070A01ULL,0x1012070E150206E4ULL,0xFE0A05071203EDE4ULL,
0x0EF201F91A240EF3ULL,0x0F0204F30916F500ULL,0x000C09F8F408131AULL,0x0D02F8100D1B00F2ULL,0xFEF706FB130B000FULL,0xFCF418F7F411ECFCULL,0xF800F7051D22120CULL,0xFAF41C160BFE0DF4ULL,
0x07FF12F0FE22EE0FULL,0xFEFBF41E06081017ULL,0x1EF61D15FB0E1309ULL,0x03EFF923182CF119ULL,0x05000B151A0F1CF1ULL,0x1511F220032BFAFFULL,0xFF0DFB040713E4EFULL,0x01020BFBEF24F61BULL,
0x13131D111001FFF8ULL,0xF10D080C1E1A00F8ULL,0xF8F2032415010DFAULL,0x0FF9FE141FFD1D1BULL,0xFB0CF81410F90411ULL,0x0F13190A19F6FAF1ULL,0xF9F1010913FB10F4ULL,0xF9FB05FF11F4F1F9ULL,
0x0F0C12E20500E70FULL,0x0413F4050DFFE90DULL,0xFAF9EAFBE704FAE6ULL,0x01161A2110FD130EULL,0x17EAFAFE09030E04ULL,0x04110116F725F403ULL,0xF0080CFEFD03F716ULL,0x07EE11201814F3FFULL,
